<unk>	0
<s>	0
</s>	0
▁t	-0
▁a	-1
in	-2
he	-3
on	-4
re	-5
ti	-6
▁the	-7
▁o	-8
er	-9
▁s	-10
▁c	-11
en	-12
ed	-13
▁of	-14
▁p	-15
▁w	-16
nd	-17
is	-18
tion	-19
al	-20
as	-21
or	-22
▁and	-23
▁in	-24
▁f	-25
▁m	-26
▁d	-27
es	-28
at	-29
ro	-30
▁b	-31
ing	-32
it	-33
an	-34
ar	-35
ic	-36
ec	-37
▁e	-38
ation	-39
ent	-40
▁re	-41
した	-42
ac	-43
▁T	-44
el	-45
▁l	-46
▁is	-47
▁was	-48
et	-49
us	-50
ho	-51
▁to	-52
ul	-53
om	-54
uc	-55
le	-56
▁con	-57
ut	-58
▁for	-59
▁The	-60
ment	-61
tr	-62
ol	-63
▁n	-64
▁g	-65
os	-66
ur	-67
▁ex	-68
am	-69
ere	-70
▁th	-71
▁h	-72
ure	-73
il	-74
per	-75
▁I	-76
im	-77
▁pro	-78
する	-79
ig	-80
ve	-81
id	-82
ce	-83
▁by	-84
▁A	-85
して	-86
▁on	-87
ith	-88
▁st	-89
tic	-90
ag	-91
st	-92
ter	-93
▁with	-94
いて	-95
em	-96
ra	-97
▁v	-98
ect	-99
pl	-100
si	-101
ある	-102
ri	-103
った	-104
ff	-105
ot	-106
um	-107
▁be	-108
ly	-109
▁are	-110
ity	-111
▁an	-112
qu	-113
ain	-114
ir	-115
▁as	-116
duc	-117
od	-118
▁were	-119
op	-120
▁de	-121
un	-122
によ	-123
▁res	-124
▁1	-125
res	-126
og	-127
ow	-128
につ	-129
▁C	-130
eas	-131
▁com	-132
▁us	-133
▁met	-134
について	-135
di	-136
igh	-137
▁di	-138
▁dis	-139
▁(	-140
こと	-141
▁ch	-142
ess	-143
rom	-144
▁ac	-145
ati	-146
ver	-147
ate	-148
ical	-149
iz	-150
ble	-151
である	-152
▁it	-153
ated	-154
▁that	-155
yst	-156
▁at	-157
ant	-158
され	-159
では	-160
▁In	-161
age	-162
▁su	-163
hod	-164
▁method	-165
▁P	-166
いる	-167
▁wh	-168
▁S	-169
ip	-170
▁he	-171
▁al	-172
vel	-173
ine	-174
ad	-175
▁en	-176
から	-177
▁im	-178
▁ad	-179
pe	-180
ich	-181
ult	-182
その	-183
ech	-184
ase	-185
ell	-186
▁from	-187
▁which	-188
if	-189
ort	-190
ch	-191
ge	-192
▁des	-193
▁meas	-194
se	-195
ial	-196
▁int	-197
▁out	-198
ay	-199
00	-200
orm	-201
▁2	-202
▁sho	-203
▁ob	-204
oc	-205
▁r	-206
として	-207
und	-208
▁car	-209
▁exam	-210
ion	-211
▁eff	-212
▁comp	-213
est	-214
▁or	-215
ding	-216
th	-217
act	-218
ist	-219
ance	-220
all	-221
ear	-222
測定	-223
sion	-224
▁syst	-225
▁system	-226
▁pa	-227
▁pl	-228
▁pos	-229
her	-230
▁sp	-231
ater	-232
▁cont	-233
▁measure	-234
ug	-235
▁Th	-236
▁per	-237
▁paper	-238
にお	-239
▁F	-240
▁M	-241
▁ap	-242
ined	-243
ab	-244
ous	-245
ran	-246
▁par	-247
tive	-248
▁this	-249
form	-250
▁show	-251
olog	-252
▁high	-253
▁result	-254
って	-255
▁co	-256
ap	-257
による	-258
ained	-259
を行	-260
▁rec	-261
▁This	-262
truc	-263
▁gen	-264
べた	-265
cri	-266
▁can	-267
▁cons	-268
であ	-269
など	-270
られ	-271
▁ab	-272
ication	-273
ore	-274
ress	-275
▁descri	-276
でき	-277
ace	-278
により	-279
▁pre	-280
ach	-281
and	-282
rol	-283
ib	-284
ight	-285
up	-286
ため	-287
▁imp	-288
▁using	-289
▁describ	-290
ステ	-291
echn	-292
erv	-293
velop	-294
dition	-295
結果	-296
ction	-297
▁こ	-298
およ	-299
イン	-300
および	-301
▁cl	-302
▁ho	-303
ases	-304
▁gro	-305
▁develop	-306
ren	-307
▁not	-308
▁techn	-309
には	-310
を用	-311
▁ra	-312
ents	-313
を示	-314
▁It	-315
▁diff	-316
ph	-317
▁inc	-318
▁B	-319
ew	-320
▁3	-321
▁sur	-322
der	-323
ven	-324
述べた	-325
ried	-326
ak	-327
▁L	-328
pos	-329
▁tre	-330
技術	-331
検討	-332
ens	-333
etw	-334
ide	-335
▁chan	-336
so	-337
agn	-338
▁el	-339
ution	-340
▁form	-341
▁produc	-342
ys	-343
ット	-344
▁qu	-345
かった	-346
ud	-347
▁E	-348
alu	-349
ary	-350
ign	-351
ことが	-352
▁det	-353
▁mod	-354
▁rel	-355
リン	-356
hen	-357
ied	-358
ection	-359
ulation	-360
ける	-361
are	-362
ted	-363
able	-364
▁expl	-365
▁effect	-366
te	-367
また	-368
uch	-369
▁se	-370
ym	-371
▁D	-372
▁H	-373
研究	-374
▁ro	-375
▁has	-376
ology	-377
roduc	-378
▁pati	-379
lo	-380
low	-381
システ	-382
eren	-383
システム	-384
ature	-385
▁also	-386
▁cases	-387
された	-388
cess	-389
ectr	-390
ture	-391
▁sub	-392
▁anal	-393
▁test	-394
▁examined	-395
ない	-396
よう	-397
及び	-398
ill	-399
fter	-400
▁man	-401
▁appl	-402
ination	-403
開発	-404
iti	-405
▁As	-406
▁hy	-407
▁O	-408
ータ	-409
ies	-410
ors	-411
ular	-412
▁ins	-413
▁tran	-414
▁used	-415
ization	-416
▁diseas	-417
ール	-418
iel	-419
▁carried	-420
▁N	-421
ugh	-422
▁so	-423
▁inf	-424
acter	-425
ative	-426
▁le	-427
できる	-428
であった	-429
における	-430
▁such	-431
action	-432
での	-433
ory	-434
ype	-435
▁obs	-436
ition	-437
▁gener	-438
治療	-439
een	-440
int	-441
▁equ	-442
▁ind	-443
▁measurement	-444
ia	-445
▁R	-446
に対	-447
cer	-448
ield	-449
▁fil	-450
etween	-451
unction	-452
▁observ	-453
pt	-454
方法	-455
▁ar	-456
ered	-457
▁low	-458
▁trans	-459
▁between	-460
▁described	-461
▁W	-462
細胞	-463
tiv	-464
ual	-465
▁また	-466
port	-467
year	-468
▁introduc	-469
いた	-470
に関	-471
可能	-472
ork	-473
ros	-474
▁ph	-475
atment	-476
▁after	-477
▁inter	-478
▁mater	-479
認め	-480
▁cr	-481
atic	-482
ected	-483
▁material	-484
▁k	-485
との	-486
レー	-487
変化	-488
min	-489
▁sh	-490
ている	-491
ence	-492
ized	-493
▁reg	-494
▁tim	-495
▁char	-496
▁process	-497
cy	-498
ard	-499
ice	-500
rap	-501
▁その	-502
▁acc	-503
している	-504
▁pres	-505
▁disease	-506
0.	-507
lu	-508
スト	-509
構造	-510
紹介	-511
ari	-512
▁pr	-513
ased	-514
peri	-515
を行った	-516
▁cell	-517
▁film	-518
▁field	-519
▁control	-520
▁treatment	-521
10	-522
なる	-523
iqu	-524
▁sc	-525
▁bec	-526
▁mic	-527
ility	-528
▁possi	-529
av	-530
▁4	-531
til	-532
tit	-533
▁op	-534
▁we	-535
▁dec	-536
ating	-537
▁function	-538
▁6	-539
ネル	-540
機能	-541
ten	-542
ved	-543
検討した	-544
▁condition	-545
),	-546
への	-547
利用	-548
患者	-549
ave	-550
one	-551
uld	-552
▁dr	-553
がある	-554
される	-555
▁type	-556
▁impro	-557
▁differen	-558
▁5	-559
コン	-560
ast	-561
erg	-562
ree	-563
▁ne	-564
▁technology	-565
19	-566
ism	-567
▁un	-568
iron	-569
ting	-570
▁abo	-571
▁obt	-572
istic	-573
ations	-574
▁model	-575
tructure	-576
▁character	-577
▁explained	-578
▁本	-579
実験	-580
度の	-581
tim	-582
osis	-583
▁but	-584
すること	-585
において	-586
tical	-587
▁fact	-588
▁prog	-589
▁experi	-590
後の	-591
必要	-592
環境	-593
ath	-594
ysis	-595
▁exp	-596
▁ste	-597
uring	-598
▁oper	-599
to	-600
yn	-601
モデ	-602
影響	-603
ers	-604
ici	-605
ire	-606
ple	-607
tif	-608
face	-609
oint	-610
▁sim	-611
を示した	-612
紹介した	-613
▁case	-614
について述べた	-615
試験	-616
▁fo	-617
▁patients	-618
▁J	-619
クロ	-620
効果	-621
性を	-622
blem	-623
etic	-624
ther	-625
▁cor	-626
emper	-627
▁vari	-628
▁incre	-629
▁problem	-630
▁experiment	-631
ale	-632
end	-633
hem	-634
▁sm	-635
ency	-636
▁sol	-637
viron	-638
▁time	-639
vironment	-640
emperature	-641
ue	-642
大き	-643
aus	-644
ite	-645
▁ag	-646
説した	-647
▁aut	-648
▁its	-649
anism	-650
urren	-651
▁magn	-652
▁mech	-653
▁There	-654
▁present	-655
▁development	-656
▁characteristic	-657
ub	-658
wo	-659
ong	-660
trib	-661
▁inv	-662
▁rate	-663
▁resp	-664
▁water	-665
▁surface	-666
もの	-667
ック	-668
ング	-669
ード	-670
使用	-671
装置	-672
調査	-673
▁この	-674
られた	-675
モデル	-676
entr	-677
▁part	-678
ipment	-679
▁perform	-680
▁measured	-681
▁structure	-682
▁environment	-683
cm	-684
▁G	-685
処理	-686
anc	-687
ergy	-688
▁sam	-689
▁und	-690
▁there	-691
▁results	-692
formation	-693
ギー	-694
プロ	-695
投与	-696
検出	-697
考え	-698
評価	-699
▁mo	-700
▁これ	-701
ific	-702
▁dep	-703
▁pow	-704
ities	-705
▁been	-706
▁conc	-707
▁drug	-708
▁obtained	-709
▁temperature	-710
状態	-711
疾患	-712
症例	-713
説明	-714
ade	-715
ane	-716
ome	-717
▁ev	-718
rapy	-719
▁col	-720
▁exc	-721
▁fol	-722
▁mon	-723
▁two	-724
▁use	-725
なかった	-726
によって	-727
earch	-728
uture	-729
▁spec	-730
▁work	-731
▁group	-732
▁shown	-733
▁report	-734
▁addition	-735
▁observed	-736
▁possible	-737
▁equipment	-738
▁"	-739
ショ	-740
ター	-741
性の	-742
比較	-743
hol	-744
▁19	-745
▁no	-746
ness	-747
▁than	-748
▁valu	-749
▁year	-750
vement	-751
▁small	-752
▁change	-753
▁showed	-754
▁analysis	-755
20	-756
▁:	-757
的な	-758
ium	-759
▁bi	-760
なった	-761
エネル	-762
ared	-763
▁pol	-764
▁rem	-765
エネルギー	-766
▁electr	-767
▁future	-768
▁developed	-769
yl	-770
ップ	-771
分子	-772
対象	-773
時間	-774
解析	-775
関係	-776
hed	-777
ond	-778
▁et	-779
▁ul	-780
eter	-781
lood	-782
▁gra	-783
tivity	-784
▁chang	-785
▁evalu	-786
▁follow	-787
▁partic	-788
▁application	-789
ma	-790
yc	-791
体の	-792
制御	-793
反応	-794
場合	-795
発生	-796
ody	-797
ogn	-798
ons	-799
ute	-800
arge	-801
▁fin	-802
▁nec	-803
▁over	-804
▁blood	-805
▁cancer	-806
▁operation	-807
▁production	-808
▁u	-809
材料	-810
検査	-811
ack	-812
ass	-813
les	-814
udy	-815
▁str	-816
▁outl	-817
▁util	-818
を紹介した	-819
▁light	-820
,1	-821
より	-822
ルス	-823
因子	-824
報告	-825
的に	-826
遺伝	-827
ata	-828
led	-829
▁10	-830
に対する	-831
を用いて	-832
▁dire	-833
▁about	-834
▁under	-835
▁consid	-836
▁energy	-837
▁describes	-838
▁mechanism	-839
▁introduced	-840
アル	-841
プラ	-842
分析	-843
療法	-844
表面	-845
重要	-846
gen	-847
irc	-848
oth	-849
などの	-850
fact	-851
ject	-852
onic	-853
ples	-854
を用いた	-855
▁mach	-856
▁cryst	-857
▁state	-858
▁import	-859
▁resist	-860
▁distrib	-861
▁magnetic	-862
,2	-863
ke	-864
さら	-865
セン	-866
問題	-867
生産	-868
ark	-869
ber	-870
cop	-871
ely	-872
ize	-873
the	-874
▁es	-875
▁gl	-876
であり	-877
▁new	-878
▁ver	-879
に関する	-880
ption	-881
▁each	-882
▁heat	-883
▁made	-884
▁when	-885
ective	-886
ension	-887
▁order	-888
▁study	-889
hemical	-890
vention	-891
▁recogn	-892
▁region	-893
▁various	-894
▁reaction	-895
▁important	-896
12	-897
ct	-898
ix	-899
▁K	-900
▁U	-901
らか	-902
フィ	-903
ンの	-904
高い	-905
pit	-906
さらに	-907
とした	-908
と考え	-909
を認め	-910
apan	-911
cept	-912
▁med	-913
▁org	-914
▁sup	-915
説明した	-916
onduc	-917
▁acid	-918
▁anti	-919
▁sign	-920
ensity	-921
▁Japan	-922
▁necess	-923
▁construc	-924
▁research	-925
▁distribution	-926
0%	-927
なく	-928
以上	-929
加工	-930
形成	-931
計算	-932
診断	-933
alc	-934
mun	-935
ost	-936
val	-937
▁up	-938
ling	-939
tial	-940
vely	-941
▁etc	-942
▁fac	-943
▁gas	-944
▁hep	-945
▁lay	-946
するため	-947
ality	-948
▁more	-949
▁radi	-950
▁conduc	-951
▁concentr	-952
▁generation	-953
.5	-954
eg	-955
ry	-956
ts	-957
▁)	-958
グラ	-959
ント	-960
ート	-961
性が	-962
方向	-963
を測定	-964
遺伝子	-965
ardi	-966
ines	-967
▁deg	-968
▁one	-969
▁comb	-970
▁plan	-971
▁quan	-972
▁その結果	-973
▁admin	-974
▁force	-975
▁press	-976
▁following	-977
▁examination	-978
ax	-979
ie	-980
mo	-981
それ	-982
とも	-983
ーク	-984
ース	-985
中の	-986
分布	-987
効率	-988
化学	-989
施設	-990
条件	-991
標記	-992
結晶	-993
ail	-994
gth	-995
pro	-996
▁bo	-997
▁li	-998
istr	-999
sive	-1000
ural	-1001
▁hyd	-1002
▁sec	-1003
▁sel	-1004
▁tho	-1005
ufact	-1006
▁circ	-1007
▁clin	-1008
▁grow	-1009
▁into	-1010
▁main	-1011
▁only	-1012
urrent	-1013
▁diagn	-1014
▁power	-1015
▁super	-1016
▁effici	-1017
▁characteristics	-1018
.7	-1019
NA	-1020
af	-1021
れる	-1022
イオ	-1023
ファ	-1024
作用	-1025
情報	-1026
状況	-1027
emb	-1028
ics	-1029
tig	-1030
▁Al	-1031
のため	-1032
明らか	-1033
ates	-1034
ause	-1035
ning	-1036
▁For	-1037
▁loc	-1038
▁non	-1039
▁num	-1040
▁who	-1041
解説した	-1042
iquid	-1043
ision	-1044
▁conf	-1045
▁prep	-1046
▁wave	-1047
roscop	-1048
▁point	-1049
▁reduc	-1050
▁these	-1051
▁manufact	-1052
▁concentration	-1053
50	-1054
II	-1055
RS	-1056
ep	-1057
ks	-1058
える	-1059
まで	-1060
ンド	-1061
温度	-1062
濃度	-1063
old	-1064
ram	-1065
られる	-1066
fore	-1067
irst	-1068
olec	-1069
▁all	-1070
ified	-1071
uation	-1072
▁analy	-1073
▁decre	-1074
▁image	-1075
▁indic	-1076
▁other	-1077
▁stren	-1078
ression	-1079
▁patient	-1080
CD	-1081
IS	-1082
cc	-1083
ex	-1084
を得	-1085
クト	-1086
平均	-1087
所見	-1088
等の	-1089
組織	-1090
課題	-1091
000	-1092
199	-1093
ind	-1094
oph	-1095
▁vi	-1096
ことを	-1097
ように	-1098
を対象	-1099
ション	-1100
ains	-1101
ynam	-1102
▁tit	-1103
っている	-1104
itive	-1105
rough	-1106
▁calc	-1107
▁line	-1108
▁sens	-1109
されている	-1110
lement	-1111
▁compl	-1112
▁inves	-1113
▁level	-1114
▁improvement	-1115
).	-1116
▁9	-1117
すい	-1118
エン	-1119
実施	-1120
強度	-1121
有効	-1122
特徴	-1123
特性	-1124
生成	-1125
臨床	-1126
als	-1127
arg	-1128
ral	-1129
ric	-1130
sor	-1131
zed	-1132
▁ox	-1133
の測定	-1134
ally	-1135
ator	-1136
fect	-1137
sing	-1138
tern	-1139
▁Pre	-1140
▁min	-1141
▁ser	-1142
▁sym	-1143
▁data	-1144
ission	-1145
▁based	-1146
▁could	-1147
▁growth	-1148
▁liquid	-1149
▁proper	-1150
▁applied	-1151
▁investig	-1152
▁necessary	-1153
▁information	-1154
aw	-1155
ft	-1156
ld	-1157
▁j	-1158
サイ	-1159
ープ	-1160
予防	-1161
応用	-1162
日本	-1163
神経	-1164
ape	-1165
arm	-1166
ful	-1167
ile	-1168
▁On	-1169
▁em	-1170
▁fe	-1171
▁my	-1172
の結果	-1173
を行い	-1174
影響を	-1175
ustr	-1176
▁And	-1177
▁hum	-1178
▁pat	-1179
▁pho	-1180
▁ultr	-1181
ectric	-1182
▁facil	-1183
▁found	-1184
▁large	-1185
▁organ	-1186
▁compos	-1187
▁factor	-1188
▁respon	-1189
▁stress	-1190
▁quantit	-1191
▁systems	-1192
▁therapy	-1193
▁pressure	-1194
▁evaluation	-1195
,3	-1196
11	-1197
MA	-1198
de	-1199
▁7	-1200
これ	-1201
させ	-1202
れた	-1203
ライ	-1204
ラス	-1205
レス	-1206
子の	-1207
改善	-1208
来の	-1209
減少	-1210
画像	-1211
確認	-1212
100	-1213
acy	-1214
erm	-1215
iod	-1216
oma	-1217
ose	-1218
▁tr	-1219
データ	-1220
here	-1221
ited	-1222
lear	-1223
tein	-1224
▁bas	-1225
▁lim	-1226
▁sit	-1227
▁spe	-1228
▁vol	-1229
▁さらに	-1230
明らかに	-1231
ently	-1232
▁base	-1233
▁body	-1234
▁have	-1235
▁cells	-1236
▁layer	-1237
▁phase	-1238
▁plant	-1239
▁value	-1240
ability	-1241
▁contin	-1242
▁conver	-1243
▁design	-1244
▁current	-1245
▁reported	-1246
▁measuring	-1247
▁facilities	-1248
▁processing	-1249
▁resistance	-1250
13	-1251
DL	-1252
mm	-1253
ok	-1254
yp	-1255
▁Y	-1256
の発	-1257
学的	-1258
心筋	-1259
率は	-1260
蛋白	-1261
製造	-1262
観察	-1263
領域	-1264
ced	-1265
ick	-1266
inc	-1267
ior	-1268
iss	-1269
rop	-1270
sif	-1271
sis	-1272
▁fl	-1273
ネット	-1274
調べた	-1275
hing	-1276
raph	-1277
▁adv	-1278
▁cap	-1279
▁day	-1280
▁men	-1281
▁mul	-1282
▁pur	-1283
報告した	-1284
開発した	-1285
ancre	-1286
posed	-1287
▁aver	-1288
▁clar	-1289
▁subs	-1290
▁well	-1291
bility	-1292
luding	-1293
▁accur	-1294
▁appro	-1295
▁dynam	-1296
▁stage	-1297
▁their	-1298
▁degree	-1299
▁formed	-1300
▁pancre	-1301
▁period	-1302
▁superc	-1303
ological	-1304
▁element	-1305
▁methods	-1306
ification	-1307
▁chemical	-1308
▁clinical	-1309
▁outlined	-1310
▁position	-1311
▁progress	-1312
▁techniqu	-1313
▁including	-1314
▁efficiency	-1315
▁construction	-1316
80	-1317
vi	-1318
しい	-1319
ガス	-1320
スク	-1321
ティ	-1322
フェ	-1323
ージ	-1324
人工	-1325
増加	-1326
応答	-1327
成長	-1328
手術	-1329
抗体	-1330
特に	-1331
症状	-1332
速度	-1333
電流	-1334
ARS	-1335
art	-1336
ety	-1337
irm	-1338
ise	-1339
ron	-1340
tis	-1341
udi	-1342
▁Co	-1343
▁er	-1344
▁me	-1345
▁sl	-1346
aser	-1347
ecti	-1348
ptom	-1349
rain	-1350
ying	-1351
▁200	-1352
▁act	-1353
▁occ	-1354
▁ref	-1355
▁sem	-1356
▁vis	-1357
icial	-1358
round	-1359
▁atom	-1360
▁cere	-1361
▁intr	-1362
▁many	-1363
▁thin	-1364
onduct	-1365
▁first	-1366
▁micro	-1367
▁depend	-1368
electric	-1369
perative	-1370
▁density	-1371
▁finding	-1372
▁symptom	-1373
▁improved	-1374
▁increase	-1375
▁problems	-1376
▁strength	-1377
▁detection	-1378
▁considered	-1379
AM	-1380
が多	-1381
のみ	-1382
フォ	-1383
マイ	-1384
ーブ	-1385
伝導	-1386
作成	-1387
依存	-1388
医療	-1389
向上	-1390
安定	-1391
密度	-1392
導入	-1393
時の	-1394
機構	-1395
法の	-1396
法を	-1397
物質	-1398
空間	-1399
管理	-1400
自動	-1401
適用	-1402
電子	-1403
hip	-1404
omy	-1405
ord	-1406
oss	-1407
uct	-1408
ensi	-1409
othe	-1410
over	-1411
ping	-1412
▁hig	-1413
▁hyp	-1414
▁mus	-1415
▁pul	-1416
holog	-1417
izing	-1418
plant	-1419
▁both	-1420
▁kind	-1421
▁less	-1422
▁long	-1423
▁pain	-1424
▁wire	-1425
▁elect	-1426
▁exist	-1427
▁stand	-1428
▁surve	-1429
▁should	-1430
olecular	-1431
▁average	-1432
▁effects	-1433
▁conditions	-1434
▁recognized	-1435
▁observation	-1436
VD	-1437
▁X	-1438
▁y	-1439
▁最	-1440
めて	-1441
を含	-1442
ウイ	-1443
シュ	-1444
ディ	-1445
リー	-1446
中心	-1447
以下	-1448
位置	-1449
化を	-1450
性能	-1451
放射	-1452
示唆	-1453
移植	-1454
計画	-1455
選択	-1456
関連	-1457
障害	-1458
mal	-1459
own	-1460
put	-1461
ray	-1462
▁lo	-1463
が必要	-1464
とする	-1465
ともに	-1466
メータ	-1467
ange	-1468
ogen	-1469
omen	-1470
omes	-1471
ties	-1472
umor	-1473
ving	-1474
▁air	-1475
▁ass	-1476
▁due	-1477
▁gre	-1478
▁ion	-1479
▁lit	-1480
▁rob	-1481
▁これら	-1482
を認めた	-1483
ウイルス	-1484
▁coll	-1485
▁flow	-1486
▁mark	-1487
▁pers	-1488
▁plas	-1489
▁size	-1490
を検討した	-1491
ording	-1492
▁autom	-1493
▁drugs	-1494
▁short	-1495
▁space	-1496
▁steel	-1497
▁studi	-1498
▁tumor	-1499
▁years	-1500
ational	-1501
▁weight	-1502
tificial	-1503
▁protein	-1504
▁related	-1505
▁compared	-1506
▁explains	-1507
▁positive	-1508
▁relation	-1509
▁signific	-1510
▁solution	-1511
▁microscop	-1512
CO	-1513
ET	-1514
OS	-1515
mg	-1516
ty	-1517
この	-1518
でも	-1519
アク	-1520
グル	-1521
ハイ	-1522
他の	-1523
分解	-1524
存在	-1525
形状	-1526
期待	-1527
標題	-1528
目的	-1529
術後	-1530
cin	-1531
nel	-1532
ood	-1533
tal	-1534
uit	-1535
▁0.	-1536
となる	-1537
を利用	-1538
レーザ	-1539
今後の	-1540
超伝導	-1541
[199	-1542
ince	-1543
vent	-1544
▁Res	-1545
▁att	-1546
▁cat	-1547
▁eng	-1548
▁flu	-1549
atory	-1550
ffici	-1551
idual	-1552
ynthe	-1553
▁carb	-1554
▁gene	-1555
▁load	-1556
▁rati	-1557
▁real	-1558
▁serv	-1559
▁view	-1560
ameter	-1561
etwork	-1562
▁cereb	-1563
▁corre	-1564
▁human	-1565
▁hydro	-1566
▁hyper	-1567
▁month	-1568
▁higher	-1569
▁sensor	-1570
▁confirm	-1571
▁machine	-1572
▁samples	-1573
▁accuracy	-1574
▁specific	-1575
plantation	-1576
▁direction	-1577
▁materials	-1578
▁performed	-1579
▁relations	-1580
▁difference	-1581
▁manufacture	-1582
▁performance	-1583
5%	-1584
AD	-1585
CL	-1586
CR	-1587
CT	-1588
PS	-1589
SI	-1590
Zn	-1591
ob	-1592
▁V	-1593
▁高	-1594
しか	-1595
に基	-1596
の一	-1597
シン	-1598
タイ	-1599
チャ	-1600
ミュ	-1601
内の	-1602
定量	-1603
構成	-1604
磁場	-1605
粒子	-1606
精度	-1607
薄膜	-1608
設計	-1609
試料	-1610
ake	-1611
den	-1612
lis	-1613
uil	-1614
▁gr	-1615
に基づ	-1616
を行う	-1617
リング	-1618
ワーク	-1619
患者の	-1620
atis	-1621
inal	-1622
rane	-1623
requ	-1624
▁hom	-1625
▁lat	-1626
としての	-1627
概説した	-1628
enter	-1629
ining	-1630
order	-1631
usion	-1632
▁coun	-1633
▁even	-1634
▁phen	-1635
▁prec	-1636
▁requ	-1637
▁soil	-1638
▁ther	-1639
▁they	-1640
することが	-1641
システムを	-1642
ograph	-1643
▁antib	-1644
▁laser	-1645
▁ratio	-1646
▁those	-1647
▁ground	-1648
▁survey	-1649
▁changes	-1650
▁continu	-1651
▁crystal	-1652
▁through	-1653
▁analyzed	-1654
▁response	-1655
▁conducted	-1656
▁different	-1657
1.	-1658
15	-1659
PA	-1660
PT	-1661
sc	-1662
▁8	-1663
▁一	-1664
きた	-1665
とい	-1666
サー	-1667
スケ	-1668
セス	-1669
ベル	-1670
ラン	-1671
ロボ	-1672
上昇	-1673
乾燥	-1674
予後	-1675
切除	-1676
化の	-1677
取り	-1678
対策	-1679
後に	-1680
採用	-1681
提案	-1682
種類	-1683
範囲	-1684
血圧	-1685
観測	-1686
運動	-1687
陽性	-1688
ame	-1689
ang	-1690
ans	-1691
▁By	-1692
▁av	-1693
できた	-1694
シミュ	-1695
大きく	-1696
蛋白質	-1697
ects	-1698
ging	-1699
ired	-1700
itor	-1701
pose	-1702
tage	-1703
umin	-1704
▁had	-1705
▁hem	-1706
▁lif	-1707
▁mat	-1708
▁rol	-1709
▁she	-1710
との関係	-1711
マイクロ	-1712
ロボット	-1713
assif	-1714
ening	-1715
▁disc	-1716
▁hard	-1717
▁head	-1718
▁memb	-1719
▁musc	-1720
を説明した	-1721
シミュレー	-1722
重要である	-1723
ellent	-1724
ential	-1725
ocardi	-1726
▁above	-1727
▁absor	-1728
▁const	-1729
▁frequ	-1730
▁induc	-1731
▁kinds	-1732
▁liver	-1733
▁progn	-1734
▁total	-1735
▁trend	-1736
mission	-1737
uration	-1738
urrence	-1739
▁action	-1740
▁number	-1741
▁values	-1742
imension	-1743
▁Prefect	-1744
▁factors	-1745
▁feature	-1746
▁optical	-1747
▁expected	-1748
▁products	-1749
▁administr	-1750
▁effective	-1751
▁particles	-1752
▁artificial	-1753
▁introduces	-1754
▁significant	-1755
3)	-1756
4.	-1757
60	-1758
GF	-1759
PK	-1760
ox	-1761
sp	-1762
あり	-1763
おり	-1764
なり	-1765
にも	-1766
めた	-1767
わせ	-1768
をも	-1769
ウム	-1770
タル	-1771
チュ	-1772
ッチ	-1773
トン	-1774
ナー	-1775
フル	-1776
ーム	-1777
世代	-1778
免疫	-1779
印刷	-1780
合成	-1781
吸収	-1782
安全	-1783
対応	-1784
導体	-1785
成分	-1786
施行	-1787
有用	-1788
照射	-1789
程度	-1790
結合	-1791
運転	-1792
部の	-1793
部位	-1794
配置	-1795
酸化	-1796
量の	-1797
間の	-1798
ded	-1799
ibr	-1800
lim	-1801
met	-1802
nal	-1803
por	-1804
tle	-1805
unt	-1806
way	-1807
▁1)	-1808
▁Ch	-1809
▁do	-1810
▁ir	-1811
が可能	-1812
ような	-1813
イオン	-1814
センサ	-1815
異なる	-1816
ages	-1817
ever	-1818
roli	-1819
spit	-1820
tice	-1821
▁100	-1822
▁199	-1823
▁dam	-1824
▁dig	-1825
▁nur	-1826
▁set	-1827
とともに	-1828
に対して	-1829
ストレス	-1830
調査した	-1831
alled	-1832
gical	-1833
hough	-1834
ments	-1835
▁adop	-1836
▁fore	-1837
▁insp	-1838
▁most	-1839
▁side	-1840
▁them	-1841
を測定した	-1842
システムの	-1843
示唆された	-1844
aneous	-1845
tioned	-1846
▁being	-1847
▁depos	-1848
▁displ	-1849
▁heart	-1850
▁insul	-1851
▁optim	-1852
▁shape	-1853
▁shows	-1854
▁speed	-1855
▁steam	-1856
itation	-1857
▁before	-1858
▁carcin	-1859
▁compar	-1860
▁engine	-1861
▁hospit	-1862
▁second	-1863
otherapy	-1864
▁because	-1865
▁classif	-1866
▁industr	-1867
▁medical	-1868
▁network	-1869
▁studied	-1870
▁subject	-1871
▁voltage	-1872
について検討した	-1873
▁activity	-1874
▁constant	-1875
toperative	-1876
▁diagnosis	-1877
▁excellent	-1878
▁formation	-1879
▁indicated	-1880
▁prognosis	-1881
▁radiation	-1882
▁situation	-1883
▁technique	-1884
▁simulation	-1885
▁deformation	-1886
,4	-1887
.,	-1888
Hz	-1889
Ig	-1890
LC	-1891
ON	-1892
PE	-1893
ck	-1894
▁次	-1895
いく	-1896
いは	-1897
えて	-1898
に伴	-1899
の高	-1900
べて	-1901
を持	-1902
アン	-1903
カー	-1904
スペ	-1905
テン	-1906
トリ	-1907
ビス	-1908
作製	-1909
動向	-1910
原子	-1911
及ぼ	-1912
器の	-1913
基板	-1914
変形	-1915
小さ	-1916
工程	-1917
方式	-1918
概要	-1919
次元	-1920
水素	-1921
活動	-1922
現状	-1923
発症	-1924
経路	-1925
製品	-1926
計測	-1927
連続	-1928
電圧	-1929
顕微	-1930
amm	-1931
ces	-1932
ems	-1933
ily	-1934
sph	-1935
▁2)	-1936
▁II	-1937
▁am	-1938
▁bl	-1939
▁id	-1940
しかし	-1941
とその	-1942
を中心	-1943
を得た	-1944
ガラス	-1945
以上の	-1946
SARS	-1947
ache	-1948
ched	-1949
erve	-1950
hout	-1951
onal	-1952
orld	-1953
urce	-1954
▁did	-1955
▁err	-1956
▁inj	-1957
▁nuc	-1958
▁off	-1959
▁pip	-1960
▁sug	-1961
▁vir	-1962
する方法	-1963
となった	-1964
のための	-1965
を対象に	-1966
を述べた	-1967
asing	-1968
entif	-1969
ering	-1970
▁dist	-1971
▁good	-1972
▁inst	-1973
▁near	-1974
▁need	-1975
▁tiss	-1976
▁very	-1977
▁will	-1978
についても	-1979
▁death	-1980
▁glass	-1981
▁robot	-1982
▁scale	-1983
agement	-1984
▁become	-1985
▁compon	-1986
▁comput	-1987
▁detect	-1988
▁direct	-1989
▁plasma	-1990
▁substr	-1991
▁synthe	-1992
▁theory	-1993
▁useful	-1994
ectively	-1995
▁circuit	-1996
▁purpose	-1997
▁quality	-1998
について解説した	-1999
hological	-2000
ventional	-2001
▁myocardi	-2002
▁particle	-2003
munication	-2004
▁mentioned	-2005
▁dielectric	-2006
▁management	-2007
▁prevention	-2008
▁calculation	-2009
▁possibility	-2010
▁utilization	-2011
▁experimental	-2012
▁administration	-2013
PI	-2014
TI	-2015
ZT	-2016
ne	-2017
nm	-2018
pr	-2019
▁z	-2020
か月	-2021
が得	-2022
ので	-2023
シス	-2024
マー	-2025
モニ	-2026
上に	-2027
低下	-2028
作業	-2029
例に	-2030
光学	-2031
出力	-2032
分野	-2033
励起	-2034
同定	-2035
品質	-2036
工場	-2037
性は	-2038
感染	-2039
更に	-2040
有意	-2041
格子	-2042
機械	-2043
炭化	-2044
異常	-2045
病理	-2046
発現	-2047
相互	-2048
触媒	-2049
設備	-2050
誤差	-2051
部分	-2052
酸素	-2053
量子	-2054
金属	-2055
bin	-2056
hie	-2057
its	-2058
mos	-2059
ope	-2060
ped	-2061
ses	-2062
tom	-2063
▁14	-2064
▁20	-2065
▁30	-2066
▁We	-2067
▁ec	-2068
▁gi	-2069
▁イン	-2070
パルス	-2071
ライン	-2072
レベル	-2073
合わせ	-2074
顕微鏡	-2075
amma	-2076
ison	-2077
mosp	-2078
osed	-2079
ound	-2080
resp	-2081
vice	-2082
ymer	-2083
▁DNA	-2084
▁LDL	-2085
▁ang	-2086
▁bed	-2087
▁bre	-2088
▁dem	-2089
▁dri	-2090
▁end	-2091
▁fem	-2092
▁lym	-2093
▁may	-2094
▁oil	-2095
▁しかし	-2096
と考えた	-2097
に関して	-2098
サービス	-2099
分かった	-2100
aking	-2101
aroli	-2102
ormal	-2103
▁appe	-2104
▁area	-2105
▁auth	-2106
▁beam	-2107
▁buil	-2108
▁caus	-2109
▁comm	-2110
▁duct	-2111
▁food	-2112
▁neut	-2113
▁room	-2114
▁some	-2115
arding	-2116
lation	-2117
tering	-2118
▁achie	-2119
▁disch	-2120
▁estim	-2121
▁films	-2122
▁integ	-2123
▁local	-2124
▁three	-2125
▁viewp	-2126
▁whole	-2127
ネットワーク	-2128
eration	-2129
istered	-2130
tension	-2131
▁actual	-2132
▁atmosp	-2133
▁fields	-2134
▁little	-2135
▁simple	-2136
▁source	-2137
▁titled	-2138
onductor	-2139
▁becomes	-2140
▁electro	-2141
▁monitor	-2142
▁thermal	-2143
▁electric	-2144
▁membrane	-2145
▁produced	-2146
▁proposed	-2147
▁quantity	-2148
imensional	-2149
▁according	-2150
▁clarified	-2151
▁combination	-2152
▁conventional	-2153
▁postoperative	-2154
▁transplantation	-2155
2.	-2156
3.	-2157
30	-2158
40	-2159
5.	-2160
CC	-2161
MD	-2162
MI	-2163
PF	-2164
ik	-2165
▁そ	-2166
とは	-2167
なら	-2168
に比	-2169
のメ	-2170
アの	-2171
チン	-2172
バル	-2173
ンプ	-2174
再発	-2175
各種	-2176
回路	-2177
型の	-2178
基礎	-2179
多く	-2180
実現	-2181
小型	-2182
局所	-2183
期間	-2184
構築	-2185
活性	-2186
添加	-2187
特異	-2188
理論	-2189
生体	-2190
相関	-2191
移動	-2192
経過	-2193
良好	-2194
要因	-2195
試み	-2196
認識	-2197
通信	-2198
進展	-2199
電気	-2200
頭痛	-2201
era	-2202
fer	-2203
for	-2204
ged	-2205
ins	-2206
lor	-2207
oid	-2208
ply	-2209
ust	-2210
ysi	-2211
▁CD	-2212
▁ed	-2213
からの	-2214
これら	-2215
と比較	-2216
にある	-2217
の治療	-2218
われる	-2219
を使用	-2220
を含む	-2221
を示す	-2222
タイプ	-2223
リンパ	-2224
半導体	-2225
従来の	-2226
技術の	-2227
稿では	-2228
腫よう	-2229
alls	-2230
gest	-2231
ilar	-2232
ived	-2233
iver	-2234
line	-2235
tric	-2236
ygen	-2237
▁How	-2238
▁aff	-2239
▁bot	-2240
▁est	-2241
▁fib	-2242
▁inh	-2243
▁mix	-2244
▁nat	-2245
▁nod	-2246
▁saf	-2247
▁tun	-2248
▁wit	-2249
あるいは	-2250
を調べた	-2251
確認した	-2252
ablis	-2253
alyst	-2254
asion	-2255
ching	-2256
icult	-2257
inary	-2258
ipher	-2259
▁indi	-2260
▁land	-2261
▁male	-2262
▁prom	-2263
については	-2264
必要がある	-2265
atitis	-2266
ecting	-2267
zation	-2268
▁arran	-2269
▁basic	-2270
▁great	-2271
▁metal	-2272
▁multi	-2273
▁nerve	-2274
▁semic	-2275
▁where	-2276
▁world	-2277
▁Though	-2278
▁became	-2279
▁infant	-2280
▁output	-2281
▁points	-2282
▁prepar	-2283
▁tested	-2284
▁dynamic	-2285
▁hepatic	-2286
▁identif	-2287
▁natural	-2288
▁service	-2289
▁suggest	-2290
▁without	-2291
について概説した	-2292
シミュレーション	-2293
▁antibody	-2294
▁cerebral	-2295
▁diameter	-2296
▁distance	-2297
▁electron	-2298
▁establis	-2299
▁hospital	-2300
▁required	-2301
▁symptoms	-2302
▁decreased	-2303
▁difficult	-2304
▁generated	-2305
▁increased	-2306
▁molecular	-2307
▁presented	-2308
▁substrate	-2309
▁viewpoint	-2310
▁Prefecture	-2311
▁absorption	-2312
▁differenti	-2313
▁expression	-2314
▁inspection	-2315
▁microscope	-2316
▁composition	-2317
▁investigated	-2318
▁relationship	-2319
▁communication	-2320
,「	-2321
/5	-2322
1)	-2323
14	-2324
He	-2325
LM	-2326
PH	-2327
Pb	-2328
uk	-2329
いが	-2330
つの	-2331
とし	-2332
に分	-2333
の最	-2334
れば	-2335
イヤ	-2336
キシ	-2337
コー	-2338
フロ	-2339
レン	-2340
ンを	-2341
一致	-2342
上の	-2343
事例	-2344
今後	-2345
付近	-2346
傾向	-2347
剤の	-2348
力の	-2349
原理	-2350
呼吸	-2351
圧縮	-2352
大気	-2353
家族	-2354
感度	-2355
拡張	-2356
数の	-2357
水分	-2358
物の	-2359
現在	-2360
生じ	-2361
生理	-2362
血管	-2363
誘電	-2364
進行	-2365
関節	-2366
降圧	-2367
食品	-2368
arb	-2369
asc	-2370
cos	-2371
hav	-2372
red	-2373
sed	-2374
▁13	-2375
▁50	-2376
▁An	-2377
▁Se	-2378
▁fr	-2379
▁ke	-2380
▁sw	-2381
▁一方	-2382
という	-2383
などを	-2384
までの	-2385
を実施	-2386
を採用	-2387
を用い	-2388
を示し	-2389
エンザ	-2390
ックス	-2391
ーブル	-2392
及ぼす	-2393
大きさ	-2394
少ない	-2395
放射線	-2396
細胞の	-2397
alth	-2398
ings	-2399
lean	-2400
radi	-2401
roph	-2402
term	-2403
utes	-2404
ypes	-2405
▁198	-2406
▁age	-2407
▁ann	-2408
▁cam	-2409
▁flo	-2410
▁hal	-2411
▁ill	-2412
▁sil	-2413
▁wee	-2414
ellig	-2415
idity	-2416
rient	-2417
vered	-2418
▁From	-2419
▁When	-2420
▁back	-2421
▁cour	-2422
▁epit	-2423
▁hist	-2424
▁left	-2425
▁loss	-2426
▁poly	-2427
▁refl	-2428
▁same	-2429
▁本稿では	-2430
するために	-2431
なっている	-2432
ものである	-2433
フルエンザ	-2434
aining	-2435
ectomy	-2436
inting	-2437
vidual	-2438
▁These	-2439
▁Using	-2440
▁behav	-2441
▁cable	-2442
▁capac	-2443
▁cardi	-2444
▁lower	-2445
▁princ	-2446
▁range	-2447
▁sensi	-2448
▁since	-2449
▁ulcer	-2450
られなかった	-2451
acement	-2452
▁countr	-2453
▁during	-2454
▁irradi	-2455
▁market	-2456
▁metast	-2457
▁months	-2458
▁oxygen	-2459
▁phosph	-2460
▁sample	-2461
▁signal	-2462
▁though	-2463
▁trends	-2464
▁tunnel	-2465
fficient	-2466
▁However	-2467
▁changed	-2468
▁content	-2469
▁corresp	-2470
▁example	-2471
▁insulin	-2472
▁polymer	-2473
▁prevent	-2474
▁building	-2475
▁compound	-2476
▁computer	-2477
▁contents	-2478
▁detected	-2479
▁diseases	-2480
▁disorder	-2481
▁headache	-2482
▁phenomen	-2483
▁property	-2484
▁carcinoma	-2485
▁confirmed	-2486
▁discharge	-2487
▁frequency	-2488
▁individual	-2489
▁administered	-2490
▁transmission	-2491
▁semiconductor	-2492
28	-2493
90	-2494
AN	-2495
Al	-2496
Cu	-2497
EL	-2498
ID	-2499
RI	-2500
YE	-2501
Zr	-2502
be	-2503
li	-2504
na	-2505
が高	-2506
しょ	-2507
だけ	-2508
つつ	-2509
と同	-2510
どの	-2511
べき	-2512
りん	-2513
を見	-2514
カル	-2515
クル	-2516
ズマ	-2517
パラ	-2518
ムの	-2519
ラー	-2520
リア	-2521
世界	-2522
中央	-2523
優れ	-2524
力を	-2525
化が	-2526
十分	-2527
均一	-2528
基本	-2529
基準	-2530
変換	-2531
外科	-2532
抵抗	-2533
拡散	-2534
有機	-2535
活用	-2536
消化	-2537
溶液	-2538
炎症	-2539
生物	-2540
病院	-2541
発声	-2542
直接	-2543
破壊	-2544
絶縁	-2545
線形	-2546
考察	-2547
脂肪	-2548
自然	-2549
要素	-2550
規模	-2551
誘導	-2552
負荷	-2553
超音	-2554
述べ	-2555
進め	-2556
達成	-2557
開始	-2558
間隔	-2559
食道	-2560
CVD	-2561
III	-2562
edi	-2563
ene	-2564
ese	-2565
keV	-2566
ler	-2567
ocy	-2568
omp	-2569
ops	-2570
sia	-2571
ues	-2572
▁15	-2573
▁En	-2574
▁if	-2575
▁kn	-2576
▁sk	-2577
▁te	-2578
▁更に	-2579
あった	-2580
したが	-2581
の場合	-2582
の特徴	-2583
の開発	-2584
は認め	-2585
よりも	-2586
を形成	-2587
ロール	-2588
新しい	-2589
特性を	-2590
示した	-2591
超音波	-2592
重要な	-2593
ices	-2594
ided	-2595
ores	-2596
read	-2597
rier	-2598
ures	-2599
vity	-2600
▁amo	-2601
▁bus	-2602
▁cut	-2603
▁del	-2604
▁don	-2605
▁eas	-2606
▁ext	-2607
▁foc	-2608
▁ful	-2609
▁rep	-2610
▁ret	-2611
▁tas	-2612
▁vac	-2613
▁way	-2614
を中心に	-2615
ケーブル	-2616
サイクル	-2617
プラズマ	-2618
プロセス	-2619
antum	-2620
argin	-2621
plast	-2622
press	-2623
tions	-2624
▁care	-2625
▁done	-2626
▁isol	-2627
▁prac	-2628
▁prot	-2629
▁site	-2630
▁unit	-2631
を報告した	-2632
を明らかに	-2633
パラメータ	-2634
erence	-2635
illage	-2636
▁After	-2637
▁atten	-2638
▁clear	-2639
▁color	-2640
▁error	-2641
▁hepat	-2642
▁hypot	-2643
▁parts	-2644
▁physi	-2645
▁solid	-2646
▁subst	-2647
と考えられた	-2648
atively	-2649
ellular	-2650
olution	-2651
onstruc	-2652
▁advanc	-2653
▁carbon	-2654
▁center	-2655
▁consum	-2656
▁course	-2657
▁detail	-2658
▁determ	-2659
▁discus	-2660
▁groups	-2661
▁mainly	-2662
▁proven	-2663
▁tissue	-2664
▁ultras	-2665
▁within	-2666
tivation	-2667
▁concept	-2668
▁contrib	-2669
▁general	-2670
▁lattice	-2671
▁nursing	-2672
▁pattern	-2673
▁support	-2674
について紹介した	-2675
について説明した	-2676
▁Japanese	-2677
▁examples	-2678
▁features	-2679
▁industry	-2680
▁intellig	-2681
▁peripher	-2682
▁prepared	-2683
▁printing	-2684
▁functions	-2685
▁machining	-2686
▁reduction	-2687
dimensional	-2688
▁classified	-2689
▁continuous	-2690
▁pancreatic	-2691
▁structures	-2692
▁preparation	-2693
▁superconduc	-2694
▁applications	-2695
▁measurements	-2696
▁investigation	-2697
,7	-2698
18	-2699
AC	-2700
CS	-2701
EA	-2702
EM	-2703
FN	-2704
FU	-2705
NH	-2706
SK	-2707
VA	-2708
au	-2709
eb	-2710
hy	-2711
of	-2712
vo	-2713
〜5	-2714
しく	-2715
の中	-2716
の各	-2717
ほぼ	-2718
を使	-2719
を求	-2720
を設	-2721
アジ	-2722
ジェ	-2723
ジン	-2724
スタ	-2725
ノシ	-2726
ピュ	-2727
ブロ	-2728
メカ	-2729
ャル	-2730
上げ	-2731
下水	-2732
予備	-2733
交換	-2734
低い	-2735
入院	-2736
内に	-2737
分散	-2738
刺激	-2739
動的	-2740
品種	-2741
増殖	-2742
小児	-2743
展望	-2744
平成	-2745
年の	-2746
形態	-2747
性質	-2748
成績	-2749
把握	-2750
推定	-2751
損傷	-2752
支援	-2753
放電	-2754
数値	-2755
整備	-2756
最適	-2757
標準	-2758
率が	-2759
現象	-2760
社会	-2761
種の	-2762
突然	-2763
組み	-2764
考慮	-2765
者の	-2766
胆管	-2767
膜の	-2768
自己	-2769
蒸気	-2770
薬物	-2771
行動	-2772
観点	-2773
転倒	-2774
適切	-2775
適応	-2776
長期	-2777
DNA	-2778
ISA	-2779
MHz	-2780
XCL	-2781
hop	-2782
ish	-2783
mic	-2784
mit	-2785
oci	-2786
oun	-2787
pid	-2788
tru	-2789
ube	-2790
ude	-2791
zym	-2792
×10	-2793
▁12	-2794
▁CT	-2795
▁Ex	-2796
▁ey	-2797
▁gu	-2798
▁pe	-2799
▁日本	-2800
しょう	-2801
すると	-2802
に依存	-2803
をもつ	-2804
を示唆	-2805
エータ	-2806
クトル	-2807
パター	-2808
化した	-2809
可能な	-2810
極めて	-2811
潰よう	-2812
程度の	-2813
,000	-2814
ably	-2815
amin	-2816
ceed	-2817
esis	-2818
ious	-2819
iple	-2820
itis	-2821
lamm	-2822
limp	-2823
rate	-2824
rete	-2825
ters	-2826
used	-2827
ward	-2828
▁IGF	-2829
▁abd	-2830
▁abn	-2831
▁chr	-2832
▁fam	-2833
▁fat	-2834
▁hot	-2835
▁how	-2836
▁lab	-2837
▁les	-2838
▁mes	-2839
▁pot	-2840
▁pri	-2841
▁sat	-2842
ることが	-2843
を用いる	-2844
グループ	-2845
スケール	-2846
解析した	-2847
armac	-2848
atisf	-2849
aving	-2850
ecial	-2851
iting	-2852
overy	-2853
tract	-2854
verse	-2855
▁Then	-2856
▁conn	-2857
▁cult	-2858
▁enab	-2859
▁hand	-2860
▁life	-2861
▁mass	-2862
▁phys	-2863
▁ster	-2864
▁weak	-2865
inding	-2866
ulated	-2867
▁added	-2868
▁chain	-2869
▁esoph	-2870
▁floor	-2871
▁given	-2872
▁influ	-2873
▁prosp	-2874
▁pulse	-2875
▁route	-2876
▁thick	-2877
▁title	-2878
▁virus	-2879
▁weeks	-2880
▁while	-2881
が必要である	-2882
ようになった	-2883
ography	-2884
ressive	-2885
▁amount	-2886
▁appear	-2887
▁bottom	-2888
▁disper	-2889
▁health	-2890
▁instru	-2891
▁lesion	-2892
▁muscle	-2893
▁obtain	-2894
▁orient	-2895
▁powder	-2896
▁promot	-2897
▁static	-2898
ことが分かった	-2899
インフルエンザ	-2900
▁adopted	-2901
▁authors	-2902
▁chronic	-2903
▁limited	-2904
▁outline	-2905
▁pharmac	-2906
▁program	-2907
▁quantum	-2908
▁reduced	-2909
▁similar	-2910
▁village	-2911
ilization	-2912
▁recently	-2913
▁standard	-2914
▁surgical	-2915
▁diagnosed	-2916
▁potential	-2917
▁automation	-2918
▁deposition	-2919
▁reconstruc	-2920
▁recurrence	-2921
▁irradiation	-2922
▁respectively	-2923
▁environmental	-2924
▁manufacturing	-2925
▁differentiation	-2926
1%	-2927
38	-2928
AB	-2929
BT	-2930
Ba	-2931
IT	-2932
OA	-2933
co	-2934
td	-2935
▁0	-2936
▁Q	-2937
▁同	-2938
いず	-2939
いで	-2940
うち	-2941
が見	-2942
じた	-2943
ぜん	-2944
まず	-2945
れの	-2946
カメ	-2947
キュ	-2948
セル	-2949
ナノ	-2950
バイ	-2951
パー	-2952
ボン	-2953
ロモ	-2954
ーの	-2955
下で	-2956
乳房	-2957
以外	-2958
伝達	-2959
併用	-2960
例が	-2961
入浴	-2962
印加	-2963
原因	-2964
受容	-2965
圧力	-2966
地域	-2967
培養	-2968
境界	-2969
変位	-2970
女性	-2971
循環	-2972
急性	-2973
性と	-2974
慢性	-2975
抑制	-2976
持続	-2977
振動	-2978
接種	-2979
最近	-2980
有限	-2981
植物	-2982
機序	-2983
死の	-2984
決定	-2985
法は	-2986
点を	-2987
燃料	-2988
産生	-2989
症の	-2990
癌の	-2991
看護	-2992
知能	-2993
薬の	-2994
血液	-2995
血清	-2996
製作	-2997
要求	-2998
転移	-2999
迅速	-3000
過程	-3001
部に	-3002
酵素	-3003
量が	-3004
量を	-3005
IFN	-3006
PON	-3007
RET	-3008
air	-3009
alt	-3010
cal	-3011
erc	-3012
ets	-3013
ges	-3014
hin	-3015
ild	-3016
ird	-3017
lex	-3018
ned	-3019
ont	-3020
par	-3021
peu	-3022
pho	-3023
rid	-3024
row	-3025
ula	-3026
ule	-3027
umb	-3028
ury	-3029
usp	-3030
▁16	-3031
▁CA	-3032
▁Ig	-3033
▁To	-3034
▁cy	-3035
▁fu	-3036
▁po	-3037
▁wo	-3038
▁ここ	-3039
▁標記	-3040
▁次に	-3041
が期待	-3042
と診断	-3043
なって	-3044
の変化	-3045
われた	-3046
を持つ	-3047
を提案	-3048
イノシ	-3049
カメラ	-3050
サイト	-3051
ジスト	-3052
ッシュ	-3053
ドナー	-3054
ニング	-3055
ベース	-3056
試みた	-3057
arly	-3058
asis	-3059
athy	-3060
dden	-3061
icin	-3062
ides	-3063
ists	-3064
itro	-3065
omet	-3066
onom	-3067
ream	-3068
tain	-3069
type	-3070
▁BZT	-3071
▁CVD	-3072
▁Ltd	-3073
▁Rec	-3074
▁ben	-3075
▁cri	-3076
▁cyc	-3077
▁fis	-3078
▁fix	-3079
▁mal	-3080
▁muc	-3081
▁pum	-3082
▁ris	-3083
▁run	-3084
▁suc	-3085
▁wid	-3086
アクチュ	-3087
グラフィ	-3088
プログラ	-3089
リンパ節	-3090
測定した	-3091
考察した	-3092
astic	-3093
iness	-3094
istry	-3095
rapeu	-3096
ually	-3097
uting	-3098
▁CXCL	-3099
▁bile	-3100
▁chem	-3101
▁city	-3102
▁days	-3103
▁fall	-3104
▁fron	-3105
▁home	-3106
▁lead	-3107
▁phot	-3108
▁prim	-3109
▁remo	-3110
▁roll	-3111
▁sing	-3112
▁step	-3113
▁tend	-3114
▁vibr	-3115
▁wide	-3116
を実施した	-3117
を開発した	-3118
aching	-3119
anning	-3120
athing	-3121
ceptor	-3122
cosity	-3123
erated	-3124
erical	-3125
urther	-3126
valent	-3127
▁basis	-3128
▁brain	-3129
▁carry	-3130
▁donor	-3131
▁early	-3132
▁fiber	-3133
▁immun	-3134
▁intra	-3135
▁limit	-3136
▁lymph	-3137
▁medic	-3138
▁occur	-3139
▁plane	-3140
▁recom	-3141
▁seems	-3142
▁types	-3143
▁would	-3144
が重要である	-3145
ecially	-3146
▁atomic	-3147
▁camera	-3148
▁female	-3149
▁mechan	-3150
▁normal	-3151
▁object	-3152
▁proced	-3153
▁recent	-3154
▁spectr	-3155
▁strong	-3156
▁sudden	-3157
▁supply	-3158
アクチュエータ	-3159
titution	-3160
▁consist	-3161
▁culture	-3162
▁forming	-3163
▁nuclear	-3164
▁optimum	-3165
▁organic	-3166
▁smaller	-3167
▁behavior	-3168
▁catalyst	-3169
▁changing	-3170
▁combined	-3171
▁crystall	-3172
▁interval	-3173
▁movement	-3174
▁therapeu	-3175
▁Therefore	-3176
▁countries	-3177
▁intensity	-3178
▁selection	-3179
▁synthesis	-3180
▁transport	-3181
▁comparison	-3182
▁components	-3183
▁conversion	-3184
▁myocardial	-3185
▁peripheral	-3186
▁properties	-3187
▁ultrasonic	-3188
▁recognition	-3189
▁significantly	-3190
2%	-3191
24	-3192
27	-3193
66	-3194
Bi	-3195
CP	-3196
Co	-3197
IA	-3198
MP	-3199
NT	-3200
PC	-3201
RF	-3202
SP	-3203
Se	-3204
TT	-3205
az	-3206
kW	-3207
▁新	-3208
▁第	-3209
々の	-3210
〜9	-3211
かに	-3212
けた	-3213
てい	-3214
とき	-3215
と共	-3216
なが	-3217
に応	-3218
の変	-3219
を有	-3220
を目	-3221
を解	-3222
アミ	-3223
イド	-3224
エピ	-3225
オン	-3226
キサ	-3227
ゲン	-3228
スピ	-3229
スプ	-3230
ズム	-3231
セプ	-3232
ッパ	-3233
トラ	-3234
マル	-3235
マン	-3236
ミオ	-3237
ミニ	-3238
ロジ	-3239
ロー	-3240
ワク	-3241
不可	-3242
中に	-3243
予測	-3244
介助	-3245
促進	-3246
信号	-3247
値は	-3248
内容	-3249
再建	-3250
出発	-3251
前に	-3252
前浜	-3253
力学	-3254
化し	-3255
化合	-3256
単に	-3257
反映	-3258
合併	-3259
周波	-3260
周辺	-3261
困難	-3262
国際	-3263
堆積	-3264
展開	-3265
工事	-3266
常に	-3267
度と	-3268
微細	-3269
悪性	-3270
捕獲	-3271
接合	-3272
搭載	-3273
施工	-3274
早期	-3275
時期	-3276
梗塞	-3277
業界	-3278
機器	-3279
欠陥	-3280
段階	-3281
波形	-3282
消費	-3283
液体	-3284
用い	-3285
男性	-3286
病変	-3287
目の	-3288
確保	-3289
確立	-3290
磁気	-3291
突起	-3292
粒径	-3293
精神	-3294
縫い	-3295
耐性	-3296
臨界	-3297
血流	-3298
血球	-3299
言及	-3300
設定	-3301
部品	-3302
間に	-3303
電力	-3304
高齢	-3305
,2)	-3306
.7%	-3307
3)2	-3308
IgG	-3309
WNT	-3310
ama	-3311
amp	-3312
ays	-3313
dic	-3314
ecl	-3315
ief	-3316
ils	-3317
inf	-3318
ket	-3319
mar	-3320
och	-3321
our	-3322
pri	-3323
ume	-3324
ung	-3325
ynd	-3326
▁3)	-3327
▁At	-3328
▁El	-3329
▁Zn	-3330
▁ca	-3331
▁ps	-3332
▁特に	-3333
があり	-3334
が多く	-3335
が存在	-3336
が認め	-3337
させた	-3338
すべき	-3339
それぞ	-3340
ないが	-3341
になる	-3342
に対し	-3343
の増加	-3344
の方法	-3345
の評価	-3346
ること	-3347
を施行	-3348
を目的	-3349
テスト	-3350
メント	-3351
リスク	-3352
不可欠	-3353
可能性	-3354
大きい	-3355
将来の	-3356
標題菌	-3357
比較的	-3358
装置の	-3359
agon	-3360
high	-3361
imum	-3362
ipid	-3363
itus	-3364
most	-3365
onia	-3366
ring	-3367
rome	-3368
rosp	-3369
time	-3370
uble	-3371
very	-3372
zyme	-3373
▁All	-3374
▁Ind	-3375
▁Reg	-3376
▁adj	-3377
▁der	-3378
▁div	-3379
▁few	-3380
▁hol	-3381
▁map	-3382
▁nan	-3383
▁neg	-3384
▁rat	-3385
▁ray	-3386
▁sew	-3387
▁squ	-3388
▁tea	-3389
▁これは	-3390
ができる	-3391
していく	-3392
しており	-3393
であるが	-3394
に比べて	-3395
の影響を	-3396
コンピュ	-3397
フェロモ	-3398
人工知能	-3399
法による	-3400
相互作用	-3401
示された	-3402
言及した	-3403
actic	-3404
ageal	-3405
cardi	-3406
derly	-3407
eling	-3408
ength	-3409
lated	-3410
posal	-3411
stand	-3412
tural	-3413
using	-3414
vious	-3415
▁actu	-3416
▁clos	-3417
▁cool	-3418
▁equi	-3419
▁exch	-3420
▁four	-3421
▁incl	-3422
▁like	-3423
▁oxid	-3424
▁path	-3425
▁pipe	-3426
▁rece	-3427
▁road	-3428
▁scat	-3429
▁soft	-3430
▁star	-3431
▁stim	-3432
▁susp	-3433
▁synd	-3434
▁trap	-3435
▁tube	-3436
が得られた	-3437
を調査した	-3438
スペクトル	-3439
active	-3440
entral	-3441
ometer	-3442
ominal	-3443
onding	-3444
rought	-3445
ternal	-3446
undary	-3447
ushing	-3448
▁agent	-3449
▁avium	-3450
▁cause	-3451
▁chief	-3452
▁clean	-3453
▁deter	-3454
▁diffr	-3455
▁diges	-3456
▁dried	-3457
▁every	-3458
▁fluid	-3459
▁front	-3460
▁genes	-3461
▁infar	-3462
▁initi	-3463
▁parti	-3464
▁place	-3465
▁sever	-3466
▁third	-3467
▁tried	-3468
▁ultra	-3469
に関する研究	-3470
コンピュータ	-3471
acteria	-3472
istance	-3473
portion	-3474
tenance	-3475
▁agents	-3476
▁called	-3477
▁caused	-3478
▁demand	-3479
▁finite	-3480
▁integr	-3481
▁linear	-3482
▁malign	-3483
▁plants	-3484
▁safety	-3485
▁satisf	-3486
▁single	-3487
することにより	-3488
uminance	-3489
▁bathing	-3490
▁central	-3491
▁elderly	-3492
▁examine	-3493
▁express	-3494
▁formula	-3495
▁gravity	-3496
▁induced	-3497
▁inflamm	-3498
▁minutes	-3499
▁rolling	-3500
▁special	-3501
ことが示唆された	-3502
onductors	-3503
▁advanced	-3504
▁boundary	-3505
▁capacity	-3506
▁composed	-3507
▁concrete	-3508
▁critical	-3509
▁crystals	-3510
▁findings	-3511
▁hydrogen	-3512
▁organism	-3513
▁pancreas	-3514
▁personal	-3515
▁recovery	-3516
▁scanning	-3517
▁spectrum	-3518
▁transfer	-3519
▁Regarding	-3520
▁attention	-3521
▁estimated	-3522
▁hepatitis	-3523
▁infection	-3524
▁numerical	-3525
▁principle	-3526
▁procedure	-3527
▁thickness	-3528
▁viscosity	-3529
▁equivalent	-3530
▁esophageal	-3531
▁infarction	-3532
▁proportion	-3533
▁sufficient	-3534
▁compression	-3535
▁constructed	-3536
▁correlation	-3537
▁diffraction	-3538
▁established	-3539
▁hypotension	-3540
▁interaction	-3541
▁maintenance	-3542
▁therapeutic	-3543
▁introduction	-3544
,6	-3545
-9	-3546
17	-3547
35	-3548
GC	-3549
PN	-3550
SR	-3551
SV	-3552
Ti	-3553
VH	-3554
sh	-3555
ze	-3556
‐2	-3557
‐9	-3558
▁低	-3559
▁全	-3560
▁各	-3561
▁近	-3562
えた	-3563
こで	-3564
そう	-3565
で実	-3566
と思	-3567
の地	-3568
の有	-3569
の水	-3570
へと	-3571
まと	-3572
われ	-3573
を加	-3574
んで	-3575
ウェ	-3576
カ月	-3577
クリ	-3578
スチ	-3579
スポ	-3580
スラ	-3581
タン	-3582
ッド	-3583
テク	-3584
パッ	-3585
ヒト	-3586
ブリ	-3587
ポリ	-3588
ラジ	-3589
レイ	-3590
中球	-3591
事業	-3592
介護	-3593
付着	-3594
企業	-3595
低減	-3596
体を	-3597
例は	-3598
値の	-3599
分化	-3600
分泌	-3601
分離	-3602
分類	-3603
切欠	-3604
動作	-3605
勤務	-3606
化に	-3607
化石	-3608
医学	-3609
回折	-3610
土壌	-3611
圧延	-3612
圧潰	-3613
基盤	-3614
増大	-3615
増強	-3616
変動	-3617
外線	-3618
導電	-3619
層の	-3620
工業	-3621
度が	-3622
式の	-3623
引張	-3624
心電	-3625
成功	-3626
成膜	-3627
手法	-3628
指標	-3629
操作	-3630
散乱	-3631
景観	-3632
材の	-3633
染色	-3634
検証	-3635
業務	-3636
気道	-3637
法で	-3638
浸潤	-3639
混合	-3640
満足	-3641
溶媒	-3642
生息	-3643
生活	-3644
発表	-3645
発電	-3646
目標	-3647
相対	-3648
硝酸	-3649
磁界	-3650
筋肉	-3651
簡易	-3652
精密	-3653
系の	-3654
系統	-3655
組換	-3656
肝内	-3657
複合	-3658
角膜	-3659
記述	-3660
設置	-3661
試作	-3662
走査	-3663
起こ	-3664
超高	-3665
軽量	-3666
透析	-3667
透過	-3668
通常	-3669
道路	-3670
限界	-3671
除去	-3672
面積	-3673
200	-3674
=0.	-3675
FTI	-3676
IgM	-3677
PPI	-3678
aff	-3679
aid	-3680
ars	-3681
ats	-3682
awa	-3683
bal	-3684
com	-3685
eto	-3686
ger	-3687
hep	-3688
ian	-3689
iat	-3690
imm	-3691
ink	-3692
lay	-3693
ori	-3694
ote	-3695
out	-3696
ulk	-3697
▁11	-3698
▁17	-3699
▁60	-3700
▁Ar	-3701
▁CO	-3702
▁PF	-3703
▁PS	-3704
▁Re	-3705
▁St	-3706
▁ge	-3707
▁ri	-3708
▁本文	-3709
が多い	-3710
が有効	-3711
すい癌	-3712
ための	-3713
ながら	-3714
に伴い	-3715
に伴う	-3716
に利用	-3717
に対応	-3718
に必要	-3719
に適用	-3720
の減少	-3721
の研究	-3722
の調査	-3723
の選択	-3724
の長期	-3725
りん酸	-3726
を作成	-3727
を導入	-3728
を紹介	-3729
アルコ	-3730
エコー	-3731
クラス	-3732
ケット	-3733
スリン	-3734
チップ	-3735
ットの	-3736
バイオ	-3737
バルク	-3738
ポンプ	-3739
メカニ	-3740
レート	-3741
ワイヤ	-3742
優れた	-3743
分解能	-3744
効果の	-3745
問題を	-3746
場合の	-3747
好中球	-3748
安全性	-3749
心電図	-3750
技術を	-3751
施設の	-3752
構造の	-3753
炭化物	-3754
症状の	-3755
的性質	-3756
良好な	-3757
非常に	-3758
高感度	-3759
高血圧	-3760
FTIR	-3761
aged	-3762
aint	-3763
ancy	-3764
carb	-3765
cent	-3766
ense	-3767
iltr	-3768
opsy	-3769
ored	-3770
osin	-3771
otor	-3772
reed	-3773
rent	-3774
ules	-3775
view	-3776
▁Con	-3777
▁Pro	-3778
▁Sec	-3779
▁aim	-3780
▁bio	-3781
▁cul	-3782
▁cur	-3783
▁def	-3784
▁enc	-3785
▁ens	-3786
▁esp	-3787
▁fig	-3788
▁get	-3789
▁hel	-3790
▁hor	-3791
▁iss	-3792
▁law	-3793
▁mas	-3794
▁mob	-3795
▁nit	-3796
▁pub	-3797
▁soc	-3798
▁そこで	-3799
▁本研究	-3800
があった	-3801
が大きく	-3802
していた	-3803
つつある	-3804
つである	-3805
に及ぼす	-3806
に基づく	-3807
カーボン	-3808
トンネル	-3809
可能性が	-3810
発生する	-3811
臨界電流	-3812
観点から	-3813
ELISA	-3814
arium	-3815
ellow	-3816
ental	-3817
eters	-3818
heric	-3819
herom	-3820
ident	-3821
inter	-3822
irder	-3823
ither	-3824
ivers	-3825
joint	-3826
lobal	-3827
ocyte	-3828
ogram	-3829
ompan	-3830
other	-3831
rared	-3832
urity	-3833
▁Asia	-3834
▁SARS	-3835
▁With	-3836
▁able	-3837
▁bulk	-3838
▁chip	-3839
▁chol	-3840
▁cost	-3841
▁deal	-3842
▁dose	-3843
▁drop	-3844
▁echo	-3845
▁fill	-3846
▁fuel	-3847
▁harm	-3848
▁larg	-3849
▁mesh	-3850
▁orig	-3851
▁rise	-3852
▁seed	-3853
▁self	-3854
▁take	-3855
▁task	-3856
▁thor	-3857
▁uses	-3858
▁vivo	-3859
▁ここでは	-3860
▁これらの	-3861
ことを示唆	-3862
するための	-3863
と比較した	-3864
を採用した	-3865
を提案した	-3866
今後の課題	-3867
技術として	-3868
有用である	-3869
電子顕微鏡	-3870
Caroli	-3871
[1994.	-3872
arture	-3873
binant	-3874
forced	-3875
ground	-3876
opathy	-3877
plasty	-3878
resent	-3879
veness	-3880
ypical	-3881
▁again	-3882
▁angle	-3883
▁antif	-3884
▁artic	-3885
▁beach	-3886
▁board	-3887
▁corne	-3888
▁coron	-3889
▁depth	-3890
▁expan	-3891
▁gamma	-3892
▁hydra	-3893
▁inhib	-3894
▁lines	-3895
▁mamma	-3896
▁mixed	-3897
▁noise	-3898
▁separ	-3899
▁serum	-3900
▁sheet	-3901
▁staff	-3902
▁times	-3903
▁waste	-3904
ことを示した	-3905
について述べ	-3906
プログラムの	-3907
carbons	-3908
hepatic	-3909
▁Caroli	-3910
▁Result	-3911
▁active	-3912
▁airway	-3913
▁almost	-3914
▁assemb	-3915
▁breast	-3916
▁compan	-3917
▁concer	-3918
▁config	-3919
▁device	-3920
▁exists	-3921
▁family	-3922
▁images	-3923
▁intern	-3924
▁intrac	-3925
▁landsc	-3926
▁lowest	-3927
▁making	-3928
▁mental	-3929
▁micros	-3930
▁needed	-3931
▁office	-3932
▁remark	-3933
▁respir	-3934
▁speech	-3935
▁square	-3936
▁strand	-3937
▁therap	-3938
▁transi	-3939
ことが示された	-3940
ことを確認した	-3941
traction	-3942
▁capture	-3943
▁complet	-3944
▁derived	-3945
▁factory	-3946
▁heating	-3947
▁infiltr	-3948
▁notched	-3949
▁partial	-3950
▁product	-3951
▁several	-3952
▁species	-3953
urization	-3954
▁accompan	-3955
▁bacteria	-3956
▁business	-3957
▁consider	-3958
▁decrease	-3959
▁detector	-3960
▁elements	-3961
▁external	-3962
▁grinding	-3963
▁invasion	-3964
▁isolated	-3965
▁medicine	-3966
▁networks	-3967
▁receptor	-3968
▁subjects	-3969
▁syndrome	-3970
▁utilized	-3971
cardiogram	-3972
▁abdominal	-3973
▁attaching	-3974
▁departure	-3975
▁diffusion	-3976
▁digestive	-3977
▁increases	-3978
▁installed	-3979
▁malignant	-3980
▁necessity	-3981
▁phenomena	-3982
▁selective	-3983
▁substance	-3984
▁suggested	-3985
▁tunneling	-3986
▁utilizing	-3987
▁atmosphere	-3988
▁calculated	-3989
▁correspond	-3990
▁determined	-3991
▁electronic	-3992
▁especially	-3993
▁functional	-3994
▁increasing	-3995
▁insulation	-3996
▁partitions	-3997
▁resolution	-3998
▁scattering	-3999
▁techniques	-4000
▁understand	-4001
▁atmospheric	-4002
▁engineering	-4003
▁instruments	-4004
▁sensitivity	-4005
▁displacement	-4006
▁hydrocarbons	-4007
▁hypertension	-4008
▁intelligence	-4009
▁intrahepatic	-4010
▁manufactured	-4011
▁quantitative	-4012
▁configuration	-4013
▁international	-4014
▁superconductors	-4015
,5	-4016
04	-4017
0〜	-4018
1,	-4019
1/	-4020
16	-4021
2+	-4022
21	-4023
3,	-4024
33	-4025
3〜	-4026
4%	-4027
49	-4028
7%	-4029
7.	-4030
8-	-4031
82	-4032
As	-4033
BE	-4034
Br	-4035
CN	-4036
Ca	-4037
DG	-4038
DN	-4039
EG	-4040
HG	-4041
LO	-4042
MS	-4043
Si	-4044
St	-4045
TC	-4046
WV	-4047
ee	-4048
ef	-4049
ii	-4050
kg	-4051
pp	-4052
sl	-4053
±2	-4054
▁x	-4055
▁̄	-4056
▁中	-4057
あげ	-4058
うる	-4059
かか	-4060
かな	-4061
が行	-4062
じて	-4063
つか	-4064
とん	-4065
に着	-4066
のが	-4067
の大	-4068
の方	-4069
の熱	-4070
はい	-4071
は全	-4072
まり	-4073
める	-4074
もと	-4075
ゅう	-4076
をと	-4077
を主	-4078
を受	-4079
を変	-4080
アポ	-4081
キャ	-4082
グリ	-4083
ケア	-4084
ゾン	-4085
ダイ	-4086
チェ	-4087
ッジ	-4088
トー	-4089
ニア	-4090
ニン	-4091
ビン	-4092
フト	-4093
ミン	-4094
メチ	-4095
モー	-4096
ーパ	-4097
ーン	-4098
一般	-4099
不全	-4100
主に	-4101
侵襲	-4102
保持	-4103
候群	-4104
健康	-4105
側群	-4106
充填	-4107
具体	-4108
出し	-4109
判別	-4110
前の	-4111
化と	-4112
反射	-4113
受信	-4114
同様	-4115
含有	-4116
員会	-4117
固定	-4118
在宅	-4119
地図	-4120
地点	-4121
姿勢	-4122
学会	-4123
完全	-4124
実態	-4125
実用	-4126
実際	-4127
将来	-4128
市場	-4129
年は	-4130
年度	-4131
年齢	-4132
広い	-4133
役割	-4134
微小	-4135
心臓	-4136
応力	-4137
成果	-4138
挙げ	-4139
携帯	-4140
改良	-4141
数を	-4142
文献	-4143
日の	-4144
時に	-4145
望ま	-4146
末梢	-4147
概念	-4148
機関	-4149
歳の	-4150
死亡	-4151
汚染	-4152
油圧	-4153
注入	-4154
流出	-4155
流動	-4156
滅菌	-4157
炭素	-4158
生検	-4159
用に	-4160
病態	-4161
社の	-4162
空気	-4163
管の	-4164
組成	-4165
経済	-4166
経験	-4167
統合	-4168
継続	-4169
線維	-4170
繊維	-4171
置換	-4172
者が	-4173
肝炎	-4174
胸部	-4175
腹部	-4176
膜を	-4177
良い	-4178
良く	-4179
荷重	-4180
蛍光	-4181
衛星	-4182
衝撃	-4183
表現	-4184
角度	-4185
解決	-4186
認知	-4187
認証	-4188
説し	-4189
読み	-4190
論文	-4191
距離	-4192
輸送	-4193
進歩	-4194
配位	-4195
配線	-4196
鉄鋼	-4197
関数	-4198
防止	-4199
電極	-4200
面に	-4201
音声	-4202
飽和	-4203
駆動	-4204
高温	-4205
高速	-4206
,10	-4207
,3)	-4208
CSF	-4209
EEM	-4210
Fas	-4211
IDS	-4212
LDL	-4213
LSI	-4214
PbI	-4215
The	-4216
aAs	-4217
ank	-4218
bra	-4219
day	-4220
elf	-4221
ext	-4222
ira	-4223
isp	-4224
ner	-4225
ock	-4226
off	-4227
oim	-4228
opo	-4229
opt	-4230
org	-4231
ret	-4232
ste	-4233
sth	-4234
udo	-4235
uli	-4236
une	-4237
urn	-4238
ush	-4239
uth	-4240
xim	-4241
▁68	-4242
▁Ab	-4243
▁IS	-4244
▁Im	-4245
▁No	-4246
▁OP	-4247
▁PA	-4248
▁PH	-4249
▁Pr	-4250
▁Sh	-4251
▁Si	-4252
▁ax	-4253
▁vo	-4254
▁今後	-4255
▁実験	-4256
▁術後	-4257
が高く	-4258
しない	-4259
ぜん息	-4260
ていた	-4261
と共に	-4262
に優れ	-4263
の制御	-4264
の問題	-4265
の影響	-4266
の生産	-4267
の発生	-4268
の磁場	-4269
の臨床	-4270
ほとん	-4271
または	-4272
を検出	-4273
を構築	-4274
を生成	-4275
を進め	-4276
を達成	-4277
イント	-4278
クロロ	-4279
グルコ	-4280
ケート	-4281
コスト	-4282
シャル	-4283
スポー	-4284
ドライ	-4285
バータ	-4286
ファイ	-4287
フィル	-4288
ポテン	-4289
ミック	-4290
モニタ	-4291
モード	-4292
リティ	-4293
ンタル	-4294
与える	-4295
予後は	-4296
二つの	-4297
二次元	-4298
人看護	-4299
内容を	-4300
出した	-4301
分子量	-4302
分布の	-4303
効果を	-4304
化する	-4305
合併症	-4306
場合は	-4307
外科的	-4308
大きな	-4309
委員会	-4310
家族の	-4311
小さい	-4312
小さく	-4313
少なく	-4314
強度の	-4315
微粒子	-4316
心筋炎	-4317
方向の	-4318
材料の	-4319
治療の	-4320
温度の	-4321
準安定	-4322
現状と	-4323
環境の	-4324
生じる	-4325
症候群	-4326
種類の	-4327
範囲で	-4328
簡単に	-4329
精度の	-4330
細胞が	-4331
組換え	-4332
結果を	-4333
肝移植	-4334
肝細胞	-4335
装置を	-4336
適切な	-4337
非線形	-4338
CDCC	-4339
Gals	-4340
PECT	-4341
abil	-4342
aken	-4343
angu	-4344
apor	-4345
atom	-4346
atum	-4347
atus	-4348
aves	-4349
avir	-4350
elet	-4351
emia	-4352
eous	-4353
hist	-4354
itch	-4355
itio	-4356
iton	-4357
less	-4358
mune	-4359
ocal	-4360
olid	-4361
oned	-4362
ones	-4363
pril	-4364
sequ	-4365
tics	-4366
udge	-4367
ulic	-4368
uted	-4369
vate	-4370
ylin	-4371
zing	-4372
▁Eff	-4373
▁LSI	-4374
▁Man	-4375
▁Min	-4376
▁OYE	-4377
▁SMA	-4378
▁Sur	-4379
▁ant	-4380
▁asp	-4381
▁cer	-4382
▁dom	-4383
▁dry	-4384
▁enh	-4385
▁ess	-4386
▁gly	-4387
▁jud	-4388
▁key	-4389
▁lip	-4390
▁lub	-4391
▁max	-4392
▁mem	-4393
▁mor	-4394
▁neu	-4395
▁pse	-4396
▁sci	-4397
▁smo	-4398
▁tel	-4399
▁top	-4400
▁tor	-4401
▁tox	-4402
▁tri	-4403
▁val	-4404
▁最後に	-4405
▁次いで	-4406
としては	-4407
に基づき	-4408
に影響を	-4409
に必要な	-4410
のために	-4411
への応用	-4412
わかった	-4413
を測定し	-4414
を試みた	-4415
アポトー	-4416
イノシシ	-4417
エンジン	-4418
ションの	-4419
プローブ	-4420
ポイント	-4421
モニター	-4422
レーザー	-4423
ワクチン	-4424
一致した	-4425
乳房再建	-4426
分析した	-4427
実験では	-4428
展望した	-4429
比較した	-4430
法により	-4431
添加した	-4432
炭化水素	-4433
研究した	-4434
肝内胆管	-4435
試験結果	-4436
ances	-4437
aring	-4438
ately	-4439
cence	-4440
cohol	-4441
ended	-4442
iring	-4443
ising	-4444
orage	-4445
ossil	-4446
oxide	-4447
rosis	-4448
tingu	-4449
trans	-4450
water	-4451
▁2004	-4452
▁Also	-4453
▁City	-4454
▁IGFs	-4455
▁Next	-4456
▁They	-4457
▁allo	-4458
▁arch	-4459
▁asth	-4460
▁bone	-4461
▁coal	-4462
▁cros	-4463
▁cyto	-4464
▁diag	-4465
▁dyst	-4466
▁easy	-4467
▁exec	-4468
▁germ	-4469
▁gluc	-4470
▁grad	-4471
▁gras	-4472
▁homo	-4473
▁hous	-4474
▁iron	-4475
▁make	-4476
▁mean	-4477
▁mode	-4478
▁moun	-4479
▁much	-4480
▁node	-4481
▁pack	-4482
▁plac	-4483
▁prol	-4484
▁psyc	-4485
▁qual	-4486
▁quen	-4487
▁repe	-4488
▁risk	-4489
▁rock	-4490
▁sequ	-4491
▁spin	-4492
▁targ	-4493
▁then	-4494
▁unif	-4495
▁vacu	-4496
▁zone	-4497
が見られた	-4498
においては	-4499
においても	-4500
を施行した	-4501
アルコール	-4502
ハイリスク	-4503
モデリング	-4504
法を用いて	-4505
組み合わせ	-4506
actate	-4507
ellite	-4508
ercial	-4509
ically	-4510
icated	-4511
icular	-4512
ishing	-4513
ispens	-4514
linear	-4515
mental	-4516
motion	-4517
ociety	-4518
posure	-4519
priate	-4520
stream	-4521
udatum	-4522
▁April	-4523
▁Blimp	-4524
▁First	-4525
▁Since	-4526
▁activ	-4527
▁acute	-4528
▁arter	-4529
▁chlor	-4530
▁chrom	-4531
▁coord	-4532
▁cycle	-4533
▁decom	-4534
▁drain	-4535
▁drive	-4536
▁fluct	-4537
▁forms	-4538
▁index	-4539
▁items	-4540
▁known	-4541
▁labor	-4542
▁meter	-4543
▁molec	-4544
▁nodes	-4545
▁occup	-4546
▁often	-4547
▁param	-4548
▁price	-4549
▁quick	-4550
▁radio	-4551
▁recyc	-4552
▁regen	-4553
▁right	-4554
▁silic	-4555
▁sites	-4556
▁spect	-4557
▁sport	-4558
▁strip	-4559
▁taken	-4560
▁tests	-4561
▁tract	-4562
▁train	-4563
▁vitro	-4564
▁vocal	-4565
▁works	-4566
アポトーシス	-4567
データベース	-4568
ポテンシャル	-4569
検討を行った	-4570
ascular	-4571
ference	-4572
oimmune	-4573
ologies	-4574
optosis	-4575
ortable	-4576
tically	-4577
version	-4578
▁access	-4579
▁agreed	-4580
▁alumin	-4581
▁announ	-4582
▁around	-4583
▁biopsy	-4584
▁clarif	-4585
▁deaths	-4586
▁double	-4587
▁econom	-4588
▁either	-4589
▁except	-4590
▁fiscal	-4591
▁forest	-4592
▁global	-4593
▁length	-4594
▁memory	-4595
▁mobile	-4596
▁models	-4597
▁motion	-4598
▁novice	-4599
▁pherom	-4600
▁plates	-4601
▁predic	-4602
▁pseudo	-4603
▁series	-4604
▁sewage	-4605
▁simult	-4606
▁sludge	-4607
▁streng	-4608
▁visual	-4609
明らかになった	-4610
ervation	-4611
ormality	-4612
▁Further	-4613
▁Results	-4614
▁alcohol	-4615
▁carbide	-4616
▁cardiac	-4617
▁carrier	-4618
▁channel	-4619
▁covered	-4620
▁decided	-4621
▁effecti	-4622
▁healthy	-4623
▁history	-4624
▁initial	-4625
▁maximum	-4626
▁persons	-4627
▁primary	-4628
▁proceed	-4629
▁reports	-4630
▁reverse	-4631
▁section	-4632
▁setting	-4633
▁treated	-4634
▁working	-4635
amination	-4636
echnology	-4637
roduction	-4638
tructural	-4639
▁Research	-4640
▁achieved	-4641
▁actuator	-4642
▁approach	-4643
▁arranged	-4644
▁disposal	-4645
▁distingu	-4646
▁drainage	-4647
▁duration	-4648
▁dynamics	-4649
▁emission	-4650
▁exchange	-4651
▁excision	-4652
▁existing	-4653
▁exposure	-4654
▁hardness	-4655
▁infrared	-4656
▁internal	-4657
▁negative	-4658
▁neutroph	-4659
▁oriented	-4660
▁physical	-4661
▁planning	-4662
▁presents	-4663
▁reproduc	-4664
▁residual	-4665
▁services	-4666
▁suppress	-4667
ispensable	-4668
▁component	-4669
▁dependent	-4670
▁discussed	-4671
▁electrode	-4672
▁essential	-4673
▁evaluated	-4674
▁expansion	-4675
▁expressed	-4676
▁hydraulic	-4677
▁injection	-4678
▁landscape	-4679
▁nonlinear	-4680
▁parameter	-4681
▁precision	-4682
▁reflected	-4683
▁resistant	-4684
▁satellite	-4685
▁stability	-4686
▁vibration	-4687
▁commercial	-4688
▁consisting	-4689
▁containing	-4690
▁controlled	-4691
▁dispersion	-4692
▁excitation	-4693
▁mechanisms	-4694
▁parameters	-4695
▁regulation	-4696
▁treatments	-4697
▁usefulness	-4698
▁circulation	-4699
▁complicated	-4700
▁formulation	-4701
▁mammaplasty	-4702
▁myocarditis	-4703
▁recombinant	-4704
▁specificity	-4705
▁stimulation	-4706
▁pathological	-4707
▁simultaneous	-4708
▁technologies	-4709
▁effectiveness	-4710
▁indispensable	-4711
▁correspondence	-4712
▁identification	-4713
▁reconstructive	-4714
1〜	-4715
25	-4716
2〜	-4717
3]	-4718
BC	-4719
BP	-4720
CA	-4721
ES	-4722
EW	-4723
Eu	-4724
LS	-4725
Li	-4726
Ox	-4727
PP	-4728
RP	-4729
la	-4730
ov	-4731
pH	-4732
qn	-4733
rh	-4734
sa	-4735
wt	-4736
zy	-4737
‐1	-4738
‐3	-4739
▁-	-4740
▁<	-4741
▁〜	-4742
▁ア	-4743
▁水	-4744
▁脳	-4745
▁薬	-4746
▁重	-4747
々な	-4748
が大	-4749
ころ	-4750
せず	-4751
に至	-4752
の上	-4753
の新	-4754
は約	-4755
もっ	-4756
らの	-4757
れも	-4758
を作	-4759
を提	-4760
を通	-4761
を高	-4762
んだ	-4763
アド	-4764
イメ	-4765
キー	-4766
クス	-4767
グレ	-4768
ゲル	-4769
コロ	-4770
ゴン	-4771
サン	-4772
シリ	-4773
シル	-4774
ジュ	-4775
スロ	-4776
タの	-4777
チド	-4778
トル	-4779
バー	-4780
パソ	-4781
ピエ	-4782
フラ	-4783
ペプ	-4784
ホモ	-4785
マグ	-4786
ミネ	-4787
メー	-4788
ユニ	-4789
ロン	-4790
ンス	-4791
一体	-4792
一次	-4793
上部	-4794
下に	-4795
中和	-4796
乳酸	-4797
井戸	-4798
今回	-4799
仕切	-4800
仕様	-4801
付き	-4802
付け	-4803
代表	-4804
以降	-4805
余裕	-4806
例で	-4807
侵入	-4808
光源	-4809
再現	-4810
冷却	-4811
別の	-4812
動脈	-4813
単純	-4814
又は	-4815
合せ	-4816
合理	-4817
同時	-4818
周期	-4819
商品	-4820
噴霧	-4821
嚢胞	-4822
回復	-4823
固体	-4824
地上	-4825
地球	-4826
型と	-4827
塗料	-4828
塗装	-4829
塩基	-4830
大腸	-4831
大腿	-4832
妥当	-4833
実装	-4834
室温	-4835
容量	-4836
工学	-4837
左室	-4838
床土	-4839
建設	-4840
引き	-4841
強力	-4842
弾性	-4843
得た	-4844
心拍	-4845
性子	-4846
情動	-4847
意見	-4848
成人	-4849
成因	-4850
成形	-4851
手順	-4852
抗菌	-4853
指摘	-4854
挙動	-4855
排出	-4856
採取	-4857
接続	-4858
損失	-4859
撮影	-4860
数が	-4861
数は	-4862
文字	-4863
最大	-4864
果た	-4865
栽培	-4866
正確	-4867
殺菌	-4868
気圧	-4869
気相	-4870
法が	-4871
注意	-4872
注目	-4873
液晶	-4874
深さ	-4875
潤滑	-4876
無線	-4877
照明	-4878
熱性	-4879
熱水	-4880
燃焼	-4881
物理	-4882
発作	-4883
発性	-4884
皮下	-4885
皮膚	-4886
監視	-4887
直線	-4888
短縮	-4889
研削	-4890
穀粒	-4891
競合	-4892
粘膜	-4893
素子	-4894
細線	-4895
締め	-4896
職員	-4897
背景	-4898
融合	-4899
血中	-4900
衝突	-4901
表示	-4902
製膜	-4903
複雑	-4904
視覚	-4905
路盤	-4906
込み	-4907
送電	-4908
配列	-4909
配向	-4910
配電	-4911
鈑桁	-4912
間で	-4913
陰性	-4914
集合	-4915
雑音	-4916
電話	-4917
需要	-4918
静的	-4919
高く	-4920
黄色	-4921
2.7	-4922
50°	-4923
CAM	-4924
CoV	-4925
LAN	-4926
MAC	-4927
OYE	-4928
PAH	-4929
PCR	-4930
PEG	-4931
PLC	-4932
SLM	-4933
TLC	-4934
aki	-4935
avy	-4936
bed	-4937
cut	-4938
eep	-4939
eph	-4940
eth	-4941
eti	-4942
get	-4943
gin	-4944
gra	-4945
hes	-4946
hyd	-4947
ive	-4948
mia	-4949
mol	-4950
new	-4951
ole	-4952
reg	-4953
rem	-4954
rix	-4955
ton	-4956
tor	-4957
upl	-4958
urb	-4959
urs	-4960
yle	-4961
yot	-4962
▁1.	-4963
▁18	-4964
▁24	-4965
▁27	-4966
▁3.	-4967
▁40	-4968
▁80	-4969
▁Ad	-4970
▁Ap	-4971
▁DR	-4972
▁He	-4973
▁IC	-4974
▁IT	-4975
▁Le	-4976
▁Sp	-4977
▁sd	-4978
▁平成	-4979
▁最近	-4980
▁標題	-4981
▁環境	-4982
▁高温	-4983
ければ	-4984
ことは	-4985
させる	-4986
するが	-4987
その他	-4988
だけで	-4989
ところ	-4990
となり	-4991
にした	-4992
に低下	-4993
に分類	-4994
に有効	-4995
に関連	-4996
のある	-4997
の最大	-4998
の有無	-4999
の概要	-5000
の機能	-5001
を実現	-5002
を得る	-5003
を投与	-5004
を開始	-5005
アップ	-5006
イヤモ	-5007
エンチ	-5008
オキシ	-5009
オゾン	-5010
カイン	-5011
ゲート	-5012
コロナ	-5013
コント	-5014
シリン	-5015
シンの	-5016
スピン	-5017
タスク	-5018
テンツ	-5019
トラン	-5020
トープ	-5021
トール	-5022
ナトリ	-5023
ノール	-5024
ビーム	-5025
ピーク	-5026
プロト	-5027
ヘキサ	-5028
ホール	-5029
マスク	-5030
マトリ	-5031
マルチ	-5032
ラップ	-5033
リシス	-5034
ロイド	-5035
ロジー	-5036
ワード	-5037
ンドカ	-5038
下から	-5039
以外の	-5040
余裕度	-5041
免疫性	-5042
出発地	-5043
利用の	-5044
前後の	-5045
化を図	-5046
化合物	-5047
原子の	-5048
受容体	-5049
問題の	-5050
問題点	-5051
因子は	-5052
地表面	-5053
多くの	-5054
心疾患	-5055
投与群	-5056
抗体陽	-5057
有意な	-5058
条件の	-5059
格子の	-5060
検出器	-5061
機器の	-5062
熱処理	-5063
特性の	-5064
状態を	-5065
症では	-5066
症例の	-5067
症例を	-5068
療法の	-5069
的環境	-5070
研究が	-5071
研究所	-5072
種々の	-5073
突然死	-5074
粒子の	-5075
細胞内	-5076
自動車	-5077
行った	-5078
術後の	-5079
製品の	-5080
誘電率	-5081
論じた	-5082
送受信	-5083
通常の	-5084
開発が	-5085
間仕切	-5086
関係を	-5087
食道癌	-5088
高分子	-5089
高精度	-5090
高齢者	-5091
19-9	-5092
19‐9	-5093
Hall	-5094
SWNT	-5095
aily	-5096
anel	-5097
atab	-5098
atin	-5099
axis	-5100
down	-5101
eloc	-5102
emed	-5103
eral	-5104
etal	-5105
hool	-5106
ibri	-5107
isis	-5108
isot	-5109
ispl	-5110
ital	-5111
iter	-5112
kine	-5113
more	-5114
ocon	-5115
olar	-5116
oper	-5117
road	-5118
side	-5119
then	-5120
ulti	-5121
vere	-5122
ycob	-5123
zone	-5124
▁1.5	-5125
▁Bec	-5126
▁CPT	-5127
▁Fin	-5128
▁IgG	-5129
▁Its	-5130
▁LAN	-5131
▁MAC	-5132
▁Med	-5133
▁PCR	-5134
▁PHN	-5135
▁Tre	-5136
▁any	-5137
▁bar	-5138
▁dim	-5139
▁dys	-5140
▁eqn	-5141
▁eth	-5142
▁fas	-5143
▁gap	-5144
▁mac	-5145
▁mak	-5146
▁pig	-5147
▁rad	-5148
▁rhe	-5149
▁rig	-5150
▁sal	-5151
▁sod	-5152
▁sum	-5153
▁tal	-5154
▁tip	-5155
▁tra	-5156
▁uns	-5157
▁ven	-5158
▁これを	-5159
▁半導体	-5160
いずれも	-5161
これらの	-5162
してきた	-5163
それぞれ	-5164
ためには	-5165
ていない	-5166
であると	-5167
できない	-5168
との関連	-5169
ならない	-5170
ほとんど	-5171
を有する	-5172
を求めた	-5173
んでいる	-5174
アクセス	-5175
アジアの	-5176
イメージ	-5177
インシュ	-5178
クエンチ	-5179
クリート	-5180
スポーツ	-5181
スラッジ	-5182
ダイヤモ	-5183
チャネル	-5184
ッチング	-5185
パソコン	-5186
ブロック	-5187
ペプチド	-5188
マーカー	-5189
ミオシン	-5190
モデルの	-5191
ラジカル	-5192
不可欠な	-5193
人工床土	-5194
作製した	-5195
放射線の	-5196
有限要素	-5197
検出限界	-5198
用遺伝子	-5199
癌と診断	-5200
磁界解析	-5201
薬物療法	-5202
観察した	-5203
評価した	-5204
遺伝子の	-5205
量子井戸	-5206
量子細線	-5207
高かった	-5208
ading	-5209
aging	-5210
akage	-5211
amond	-5212
arrow	-5213
atial	-5214
axial	-5215
emble	-5216
iples	-5217
isson	-5218
light	-5219
metal	-5220
onstr	-5221
ophyl	-5222
ories	-5223
romyc	-5224
sible	-5225
sized	-5226
trict	-5227
wards	-5228
▁FRET	-5229
▁Hall	-5230
▁Here	-5231
▁ISDN	-5232
▁June	-5233
▁adap	-5234
▁biom	-5235
▁bond	-5236
▁cold	-5237
▁core	-5238
▁dest	-5239
▁does	-5240
▁down	-5241
▁emit	-5242
▁epid	-5243
▁fail	-5244
▁fine	-5245
▁flat	-5246
▁free	-5247
▁full	-5248
▁half	-5249
▁hall	-5250
▁hoof	-5251
▁inoc	-5252
▁lamp	-5253
▁last	-5254
▁leaf	-5255
▁link	-5256
▁maps	-5257
▁mecl	-5258
▁meth	-5259
▁mill	-5260
▁peak	-5261
▁poll	-5262
▁ques	-5263
▁reas	-5264
▁rein	-5265
▁rose	-5266
▁sand	-5267
▁seas	-5268
▁sedi	-5269
▁suit	-5270
▁term	-5271
▁vacc	-5272
▁そのため	-5273
▁ロボット	-5274
▁本文では	-5275
することで	-5276
との関係を	-5277
に関しては	-5278
のイノシシ	-5279
られている	-5280
を利用した	-5281
を解説した	-5282
インスリン	-5283
コンテンツ	-5284
ナトリウム	-5285
ロボットの	-5286
ンタルケア	-5287
与している	-5288
人看護職員	-5289
例を示した	-5290
機械的性質	-5291
自己免疫性	-5292
超伝導体の	-5293
運転余裕度	-5294
開発された	-5295
alysis	-5296
ecture	-5297
former	-5298
girder	-5299
hology	-5300
ilibri	-5301
imeter	-5302
imming	-5303
lished	-5304
ocated	-5305
onical	-5306
overed	-5307
remely	-5308
tation	-5309
tionna	-5310
titute	-5311
▁Based	-5312
▁adjus	-5313
▁allow	-5314
▁among	-5315
▁antic	-5316
▁atoms	-5317
▁block	-5318
▁boars	-5319
▁chair	-5320
▁child	-5321
▁crack	-5322
▁daily	-5323
▁datab	-5324
▁degre	-5325
▁enter	-5326
▁exten	-5327
▁fixed	-5328
▁heavy	-5329
▁hypog	-5330
▁inhab	-5331
▁means	-5332
▁moder	-5333
▁paint	-5334
▁plate	-5335
▁probe	-5336
▁rapid	-5337
▁renal	-5338
▁rough	-5339
▁shock	-5340
▁spray	-5341
▁stain	-5342
▁thres	-5343
▁tight	-5344
▁upper	-5345
▁veloc	-5346
▁voice	-5347
▁width	-5348
▁women	-5349
▁このような	-5350
が期待できる	-5351
になっている	-5352
コンクリート	-5353
サイトカイン	-5354
マトリックス	-5355
実験を行った	-5356
心筋ミオシン	-5357
agnetic	-5358
current	-5359
ignment	-5360
ordance	-5361
roscopy	-5362
sequent	-5363
tracted	-5364
viously	-5365
▁Intern	-5366
▁Margin	-5367
▁annual	-5368
▁binary	-5369
▁causes	-5370
▁circum	-5371
▁common	-5372
▁crisis	-5373
▁damage	-5374
▁easily	-5375
▁enzyme	-5376
▁fusion	-5377
▁gravel	-5378
▁having	-5379
▁highly	-5380
▁inside	-5381
▁interm	-5382
▁lactic	-5383
▁lubric	-5384
▁margin	-5385
▁matrix	-5386
▁minute	-5387
▁mixing	-5388
▁multil	-5389
▁myosin	-5390
▁option	-5391
▁organs	-5392
▁prelim	-5393
▁quench	-5394
▁reduce	-5395
▁regard	-5396
▁relati	-5397
▁remote	-5398
▁runoff	-5399
▁severe	-5400
▁smooth	-5401
▁social	-5402
▁sodium	-5403
▁status	-5404
▁subcut	-5405
▁taking	-5406
▁target	-5407
▁theore	-5408
▁thread	-5409
▁ventil	-5410
▁volume	-5411
▁wiring	-5412
▁yellow	-5413
ことがわかった	-5414
することを目的	-5415
を明らかにした	-5416
を認めなかった	-5417
コロナウイルス	-5418
用遺伝子組換え	-5419
ancement	-5420
hemicals	-5421
ogeneous	-5422
ogenesis	-5423
positive	-5424
ralizing	-5425
sibility	-5426
truction	-5427
▁advance	-5428
▁against	-5429
▁another	-5430
▁cooling	-5431
▁details	-5432
▁diamond	-5433
▁display	-5434
▁drought	-5435
▁elastic	-5436
▁enabled	-5437
▁enables	-5438
▁figures	-5439
▁fluores	-5440
▁foreign	-5441
▁forging	-5442
▁gastric	-5443
▁grating	-5444
▁greatly	-5445
▁infants	-5446
▁influen	-5447
▁insects	-5448
▁leakage	-5449
▁magneti	-5450
▁outside	-5451
▁private	-5452
▁project	-5453
▁radical	-5454
▁realize	-5455
▁serious	-5456
▁showing	-5457
▁solvent	-5458
▁started	-5459
▁station	-5460
▁storage	-5461
▁tension	-5462
▁uniform	-5463
▁washing	-5464
について報告した	-5465
operative	-5466
▁Ministry	-5467
▁aluminum	-5468
▁applying	-5469
▁approxim	-5470
▁assembly	-5471
▁crushing	-5472
▁decision	-5473
▁designed	-5474
▁directly	-5475
▁district	-5476
▁dystonia	-5477
▁ensemble	-5478
▁focusing	-5479
▁integral	-5480
▁lighting	-5481
▁location	-5482
▁measures	-5483
▁modeling	-5484
▁prospect	-5485
▁remained	-5486
▁rigidity	-5487
▁steaming	-5488
▁tendency	-5489
▁velocity	-5490
▁waveform	-5491
ardization	-5492
tification	-5493
▁apoptosis	-5494
▁canonical	-5495
▁complaint	-5496
▁compounds	-5497
▁converter	-5498
▁disorders	-5499
▁efficient	-5500
▁equilibri	-5501
▁establish	-5502
▁existence	-5503
▁extremely	-5504
▁indicates	-5505
▁influence	-5506
▁phosphate	-5507
▁practical	-5508
▁published	-5509
▁reactions	-5510
▁recycling	-5511
▁regarding	-5512
▁separated	-5513
▁technical	-5514
▁therapies	-5515
▁variation	-5516
athological	-5517
oconversion	-5518
▁analytical	-5519
▁appearance	-5520
▁assistance	-5521
▁autoimmune	-5522
▁background	-5523
▁dependence	-5524
▁developing	-5525
▁economical	-5526
▁electrical	-5527
▁indication	-5528
▁industrial	-5529
▁laboratory	-5530
▁mechanical	-5531
▁metastable	-5532
▁metastasis	-5533
▁occurrence	-5534
▁phenomenon	-5535
▁photograph	-5536
▁questionna	-5537
▁shortening	-5538
▁strengthen	-5539
▁structural	-5540
▁transition	-5541
▁Furthermore	-5542
▁abnormality	-5543
▁appropriate	-5544
▁consumption	-5545
▁cultivation	-5546
▁enhancement	-5547
▁fluctuation	-5548
▁inoculation	-5549
▁regenerated	-5550
▁chemotherapy	-5551
▁environments	-5552
▁hospitalized	-5553
▁neutralizing	-5554
▁organization	-5555
▁subcutaneous	-5556
▁substitution	-5557
▁verification	-5558
▁vocalization	-5559
▁consideration	-5560
▁corresponding	-5561
▁physiological	-5562
▁understanding	-5563
▁pharmacotherapy	-5564
▁superconductive	-5565
".	-5566
(1	-5567
(5	-5568
-1	-5569
/(	-5570
/7	-5571
08	-5572
45	-5573
5〜	-5574
6.	-5575
68	-5576
86	-5577
8‐	-5578
8〜	-5579
9%	-5580
9×	-5581
AG	-5582
BN	-5583
CM	-5584
CV	-5585
DO	-5586
DR	-5587
Da	-5588
EC	-5589
FL	-5590
Fe	-5591
GE	-5592
GL	-5593
GM	-5594
GP	-5595
Hg	-5596
La	-5597
MR	-5598
MT	-5599
OD	-5600
OL	-5601
SL	-5602
Sm	-5603
Sp	-5604
Sr	-5605
TM	-5606
[1	-5607
aI	-5608
br	-5609
dr	-5610
eV	-5611
gl	-5612
kV	-5613
lx	-5614
ml	-5615
pa	-5616
rp	-5617
sk	-5618
uj	-5619
uz	-5620
yo	-5621
▁=	-5622
▁μ	-5623
▁‐	-5624
▁→	-5625
▁小	-5626
▁市	-5627
▁残	-5628
▁腹	-5629
▁都	-5630
▁非	-5631
々は	-5632
あた	-5633
う痛	-5634
かつ	-5635
かを	-5636
がみ	-5637
が出	-5638
が最	-5639
きっ	-5640
きを	-5641
き層	-5642
くる	-5643
けて	-5644
さま	-5645
さを	-5646
ざま	-5647
すな	-5648
ずる	-5649
てん	-5650
で約	-5651
で行	-5652
と呼	-5653
にて	-5654
にと	-5655
に加	-5656
に差	-5657
に当	-5658
に近	-5659
に限	-5660
のは	-5661
の骨	-5662
は著	-5663
びに	-5664
ほか	-5665
ほど	-5666
めに	-5667
も多	-5668
やや	-5669
ゆる	-5670
りの	-5671
ると	-5672
わた	-5673
わち	-5674
わり	-5675
を伴	-5676
を図	-5677
を基	-5678
を要	-5679
を防	-5680
アナ	-5681
アー	-5682
イソ	-5683
イト	-5684
ウマ	-5685
エチ	-5686
オー	-5687
カの	-5688
カン	-5689
ギャ	-5690
グロ	-5691
コレ	-5692
サブ	-5693
シア	-5694
ジル	-5695
セラ	-5696
チョ	-5697
ナル	-5698
ニチ	-5699
ニュ	-5700
ノニ	-5701
ハロ	-5702
パイ	-5703
ヒド	-5704
ヒー	-5705
ビル	-5706
ピー	-5707
フタ	-5708
ブル	-5709
プレ	-5710
ホル	-5711
マウ	-5712
マッ	-5713
ムス	-5714
メタ	-5715
モリ	-5716
モン	-5717
ラウ	-5718
リル	-5719
ルメ	-5720
レル	-5721
ーズ	-5722
ーチ	-5723
一部	-5724
上皮	-5725
不確	-5726
与え	-5727
中枢	-5728
中毒	-5729
乳癌	-5730
予定	-5731
事務	-5732
二重	-5733
人の	-5734
人間	-5735
代謝	-5736
任意	-5737
位の	-5738
住宅	-5739
体で	-5740
体は	-5741
体位	-5742
例の	-5743
例を	-5744
価格	-5745
保守	-5746
個人	-5747
健常	-5748
側に	-5749
傾斜	-5750
元素	-5751
先端	-5752
入射	-5753
全身	-5754
典型	-5755
内で	-5756
円筒	-5757
再生	-5758
処分	-5759
分光	-5760
初期	-5761
判定	-5762
別に	-5763
前後	-5764
前駆	-5765
剤と	-5766
劇場	-5767
加圧	-5768
加熱	-5769
動態	-5770
化成	-5771
医師	-5772
単位	-5773
収束	-5774
収縮	-5775
取扱	-5776
合金	-5777
同一	-5778
同位	-5779
周囲	-5780
回収	-5781
地質	-5782
型肝	-5783
域の	-5784
塩化	-5785
壊死	-5786
変更	-5787
多層	-5788
多摩	-5789
多様	-5790
多相	-5791
大学	-5792
大幅	-5793
天然	-5794
定義	-5795
実証	-5796
家庭	-5797
容易	-5798
対向	-5799
封入	-5800
専門	-5801
層を	-5802
干渉	-5803
平板	-5804
平衡	-5805
平面	-5806
度や	-5807
延長	-5808
式と	-5809
弱い	-5810
強い	-5811
強く	-5812
強さ	-5813
形式	-5814
微量	-5815
快適	-5816
惹起	-5817
意識	-5818
感受	-5819
成る	-5820
手技	-5821
択伐	-5822
担体	-5823
排水	-5824
探知	-5825
探索	-5826
換気	-5827
摘出	-5828
摩耗	-5829
新た	-5830
方程	-5831
既に	-5832
日で	-5833
明な	-5834
更新	-5835
有足	-5836
柴胡	-5837
椎弓	-5838
検索	-5839
構想	-5840
機の	-5841
次の	-5842
正常	-5843
正方	-5844
気象	-5845
水の	-5846
水を	-5847
求め	-5848
法と	-5849
波長	-5850
洗濯	-5851
流行	-5852
海外	-5853
海岸	-5854
液の	-5855
混入	-5856
減量	-5857
点鼻	-5858
特定	-5859
現場	-5860
理学	-5861
生殖	-5862
産業	-5863
用の	-5864
画分	-5865
癒合	-5866
発光	-5867
発振	-5868
発芽	-5869
発見	-5870
発達	-5871
的で	-5872
盤の	-5873
直径	-5874
直流	-5875
真空	-5876
知見	-5877
社製	-5878
科学	-5879
積分	-5880
積極	-5881
立て	-5882
第一	-5883
簡便	-5884
米国	-5885
粉粒	-5886
糸張	-5887
素材	-5888
緩和	-5889
群で	-5890
者と	-5891
肥満	-5892
胃癌	-5893
能力	-5894
脂血	-5895
脂質	-5896
脳炎	-5897
腺房	-5898
臓器	-5899
葉の	-5900
蒸し	-5901
蓄積	-5902
規制	-5903
言語	-5904
計の	-5905
詳細	-5906
調節	-5907
負担	-5908
貢献	-5909
路の	-5910
転落	-5911
軽快	-5912
輝度	-5913
近似	-5914
近傍	-5915
追跡	-5916
連携	-5917
遊離	-5918
違い	-5919
適正	-5920
重症	-5921
量は	-5922
閉鎖	-5923
防汚	-5924
阻害	-5925
際の	-5926
集積	-5927
電源	-5928
電解	-5929
面で	-5930
面の	-5931
項目	-5932
頚部	-5933
頻度	-5934
骨格	-5935
髄液	-5936
高度	-5937
,1)	-5938
,16	-5939
,30	-5940
,4)	-5941
.5]	-5942
/7)	-5943
0%,	-5944
0.0	-5945
0.2	-5946
116	-5947
120	-5948
4.4	-5949
404	-5950
7,1	-5951
700	-5952
=20	-5953
ABI	-5954
ABS	-5955
APH	-5956
BPR	-5957
CAD	-5958
CuO	-5959
EAL	-5960
EPA	-5961
ERF	-5962
HIA	-5963
MIC	-5964
MPa	-5965
MRI	-5966
PGC	-5967
PKD	-5968
PSS	-5969
PWV	-5970
ROS	-5971
Rna	-5972
SHG	-5973
SIC	-5974
TTH	-5975
abr	-5976
ecA	-5977
eck	-5978
eel	-5979
eor	-5980
ery	-5981
fil	-5982
hel	-5983
hos	-5984
ida	-5985
iko	-5986
ili	-5987
irr	-5988
itr	-5989
jin	-5990
jor	-5991
lic	-5992
med	-5993
mer	-5994
mod	-5995
oct	-5996
okk	-5997
oko	-5998
oul	-5999
pti	-6000
que	-6001
rec	-6002
rip	-6003
tee	-6004
tes	-6005
uff	-6006
ulf	-6007
uly	-6008
ump	-6009
win	-6010
‐28	-6011
▁),	-6012
▁).	-6013
▁1/	-6014
▁1〜	-6015
▁21	-6016
▁25	-6017
▁26	-6018
▁4)	-6019
▁49	-6020
▁AD	-6021
▁Ac	-6022
▁CV	-6023
▁Ca	-6024
▁EL	-6025
▁FL	-6026
▁GE	-6027
▁LB	-6028
▁MI	-6029
▁Op	-6030
▁PN	-6031
▁Pl	-6032
▁Un	-6033
▁ep	-6034
▁go	-6035
▁ur	-6036
▁まず	-6037
▁チャ	-6038
▁他の	-6039
▁対象	-6040
▁急性	-6041
▁技術	-6042
▁現在	-6043
▁生体	-6044
▁計算	-6045
▁試験	-6046
▁転倒	-6047
▁近年	-6048
」,「	-6049
〜10	-6050
あり方	-6051
かなり	-6052
が低い	-6053
きっ抗	-6054
ざまな	-6055
すい炎	-6056
すべて	-6057
その後	-6058
つかの	-6059
で使用	-6060
とう痛	-6061
と呼ば	-6062
につき	-6063
に使用	-6064
に分け	-6065
に着目	-6066
の中で	-6067
の作製	-6068
の効果	-6069
の効率	-6070
の基礎	-6071
の導入	-6072
の概念	-6073
の温度	-6074
の生成	-6075
の発展	-6076
の発現	-6077
の計算	-6078
の診断	-6079
はない	-6080
もある	-6081
もので	-6082
れき層	-6083
をする	-6084
を主訴	-6085
を使い	-6086
を基に	-6087
を定量	-6088
を示さ	-6089
を適用	-6090
を配置	-6091
アジア	-6092
アプロ	-6093
アミノ	-6094
アルミ	-6095
ウマチ	-6096
エピタ	-6097
カスケ	-6098
キャン	-6099
クトロ	-6100
クロリ	-6101
ゲージ	-6102
コード	-6103
シクロ	-6104
ジタル	-6105
スーパ	-6106
セキュ	-6107
セプト	-6108
ソフト	-6109
ゾール	-6110
タフェ	-6111
チェア	-6112
デフォ	-6113
トルク	-6114
ナーゼ	-6115
ノード	-6116
バック	-6117
バンド	-6118
ビット	-6119
ピング	-6120
フェン	-6121
フリー	-6122
フレー	-6123
フロー	-6124
プライ	-6125
プリン	-6126
マシン	-6127
メタル	-6128
ライド	-6129
ライフ	-6130
ライプ	-6131
ランプ	-6132
リップ	-6133
ルミネ	-6134
ースの	-6135
ールド	-6136
与する	-6137
世界の	-6138
並びに	-6139
予防の	-6140
事務所	-6141
二酸化	-6142
二関節	-6143
付近に	-6144
以下の	-6145
依存性	-6146
光源の	-6147
全体の	-6148
切欠底	-6149
副作用	-6150
動力学	-6151
化学的	-6152
化技術	-6153
十分な	-6154
単結晶	-6155
合理化	-6156
周波数	-6157
因子を	-6158
均一に	-6159
変化が	-6160
変化を	-6161
導電性	-6162
応答の	-6163
手法の	-6164
技術は	-6165
改善し	-6166
日本の	-6167
時間が	-6168
最近の	-6169
最適な	-6170
有意差	-6171
期間に	-6172
染色体	-6173
柴胡湯	-6174
検討し	-6175
構造を	-6176
様々な	-6177
機能の	-6178
機能を	-6179
治療は	-6180
活性化	-6181
消化管	-6182
濃度の	-6183
片頭痛	-6184
状態の	-6185
現状を	-6186
生ずる	-6187
画像を	-6188
症例は	-6189
白血球	-6190
的方法	-6191
目形成	-6192
精密な	-6193
締め固	-6194
耐熱性	-6195
脂肪酸	-6196
薄膜の	-6197
薄膜を	-6198
衝撃波	-6199
表面に	-6200
複雑な	-6201
計算機	-6202
記した	-6203
赤外線	-6204
超高圧	-6205
過程を	-6206
違いが	-6207
配向膜	-6208
関連の	-6209
領域の	-6210
高濃度	-6211
高脂血	-6212
高速化	-6213
6620	-6214
FRET	-6215
GaAs	-6216
HIAA	-6217
LEEM	-6218
ODEL	-6219
PEEM	-6220
PFOA	-6221
abol	-6222
abry	-6223
acle	-6224
amic	-6225
apes	-6226
asii	-6227
aste	-6228
atch	-6229
auge	-6230
ayer	-6231
bers	-6232
brid	-6233
ceph	-6234
cher	-6235
chli	-6236
chro	-6237
cing	-6238
cted	-6239
egil	-6240
ella	-6241
ened	-6242
epti	-6243
free	-6244
hama	-6245
hold	-6246
ient	-6247
imus	-6248
inic	-6249
ises	-6250
izes	-6251
kans	-6252
lets	-6253
like	-6254
loid	-6255
lyce	-6256
mitt	-6257
mmHg	-6258
ocar	-6259
oded	-6260
odel	-6261
ogic	-6262
oglo	-6263
olit	-6264
oman	-6265
omer	-6266
oped	-6267
orth	-6268
otal	-6269
ough	-6270
phas	-6271
pore	-6272
pted	-6273
rame	-6274
rect	-6275
thal	-6276
tile	-6277
ucid	-6278
udes	-6279
ulus	-6280
vant	-6281
ware	-6282
wing	-6283
×106	-6284
‐404	-6285
▁120	-6286
▁300	-6287
▁ALS	-6288
▁ATC	-6289
▁Acc	-6290
▁CAD	-6291
▁CAM	-6292
▁CCD	-6293
▁Cat	-6294
▁Dec	-6295
▁ERF	-6296
▁FRP	-6297
▁IMD	-6298
▁IgM	-6299
▁Int	-6300
▁MRI	-6301
▁PAH	-6302
▁PET	-6303
▁PID	-6304
▁PSS	-6305
▁Par	-6306
▁Pos	-6307
▁Rel	-6308
▁SLM	-6309
▁STI	-6310
▁Sho	-6311
▁Sim	-6312
▁Two	-6313
▁add	-6314
▁big	-6315
▁cre	-6316
▁die	-6317
▁exh	-6318
▁eye	-6319
▁fed	-6320
▁gel	-6321
▁hex	-6322
▁ide	-6323
▁inn	-6324
▁kin	-6325
▁lig	-6326
▁now	-6327
▁obj	-6328
▁pec	-6329
▁pod	-6330
▁pop	-6331
▁six	-6332
▁tac	-6333
▁ter	-6334
▁ton	-6335
▁var	-6336
▁via	-6337
▁wel	-6338
▁whe	-6339
▁yet	-6340
▁そして	-6341
▁今後は	-6342
▁超伝導	-6343
いずれの	-6344
えること	-6345
が大きい	-6346
が得られ	-6347
ことから	-6348
すい腺房	-6349
すなわち	-6350
それらの	-6351
っていた	-6352
っており	-6353
との比較	-6354
なければ	-6355
に与える	-6356
に大きく	-6357
に応じた	-6358
に重要な	-6359
の範囲で	-6360
への適用	-6361
を紹介し	-6362
アドレス	-6363
アルミニ	-6364
イオンの	-6365
エチレン	-6366
キシャル	-6367
ギャップ	-6368
スキャン	-6369
スプレイ	-6370
スペース	-6371
セプター	-6372
タクロリ	-6373
チョッパ	-6374
ティング	-6375
ドライバ	-6376
ノニカル	-6377
ファイバ	-6378
メッシュ	-6379
ユニット	-6380
リウマチ	-6381
レジスト	-6382
ワイヤー	-6383
ーション	-6384
予防対策	-6385
作成した	-6386
依存性を	-6387
剤である	-6388
励起状態	-6389
化により	-6390
化学物質	-6391
化成工業	-6392
及びその	-6393
名を対象	-6394
圧潰強度	-6395
在宅勤務	-6396
場合には	-6397
得られた	-6398
心エコー	-6399
性の高い	-6400
情報伝達	-6401
抗体陽転	-6402
指摘した	-6403
有足突起	-6404
材の品質	-6405
検出され	-6406
標題菌の	-6407
測定値の	-6408
濃度測定	-6409
病理組織	-6410
症例では	-6411
発声運動	-6412
発生した	-6413
突然死の	-6414
結晶構造	-6415
自動化の	-6416
葉の水分	-6417
血しょう	-6418
認識処理	-6419
連続して	-6420
7,150	-6421
Blimp	-6422
aight	-6423
allel	-6424
antit	-6425
ather	-6426
atism	-6427
ebeck	-6428
ectro	-6429
eding	-6430
epend	-6431
erner	-6432
essel	-6433
graph	-6434
icill	-6435
icran	-6436
idire	-6437
inate	-6438
inion	-6439
iosis	-6440
ipmet	-6441
ipped	-6442
isper	-6443
lipid	-6444
losed	-6445
osome	-6446
otype	-6447
phase	-6448
rench	-6449
ridge	-6450
rogen	-6451
saiko	-6452
ucket	-6453
ulata	-6454
uliar	-6455
ursor	-6456
ylene	-6457
ymmet	-6458
▁1986	-6459
▁2005	-6460
▁CDCC	-6461
▁Calc	-6462
▁Chin	-6463
▁July	-6464
▁PFOS	-6465
▁That	-6466
▁acqu	-6467
▁aden	-6468
▁casc	-6469
▁cent	-6470
▁chop	-6471
▁diss	-6472
▁elim	-6473
▁extr	-6474
▁fell	-6475
▁	-6476
e	-6477
t	-6478
i	-6479
a	-6480
n	-6481
o	-6482
s	-6483
r	-6484
c	-6485
d	-6486
h	-6487
l	-6488
m	-6489
u	-6490
p	-6491
f	-6492
,	-6493
g	-6494
の	-6495
y	-6496
w	-6497
b	-6498
.	-6499
に	-6500
v	-6501
た	-6502
を	-6503
。	-6504
し	-6505
る	-6506
と	-6507
で	-6508
は	-6509
い	-6510
て	-6511
T	-6512
が	-6513
1	-6514
ン	-6515
ー	-6516
I	-6517
0	-6518
x	-6519
A	-6520
な	-6521
C	-6522
)	-6523
2	-6524
k	-6525
ス	-6526
れ	-6527
(	-6528
す	-6529
ル	-6530
S	-6531
P	-6532
よ	-6533
性	-6534
あ	-6535
‐	-6536
っ	-6537
ら	-6538
か	-6539
用	-6540
こ	-6541
ト	-6542
3	-6543
イ	-6544
化	-6545
つ	-6546
z	-6547
り	-6548
M	-6549
D	-6550
さ	-6551
度	-6552
5	-6553
分	-6554
q	-6555
シ	-6556
ク	-6557
も	-6558
9	-6559
4	-6560
定	-6561
F	-6562
発	-6563
リ	-6564
L	-6565
ラ	-6566
法	-6567
め	-6568
き	-6569
E	-6570
ロ	-6571
的	-6572
お	-6573
成	-6574
子	-6575
N	-6576
ッ	-6577
タ	-6578
H	-6579
ア	-6580
6	-6581
R	-6582
プ	-6583
体	-6584
O	-6585
B	-6586
生	-6587
そ	-6588
行	-6589
高	-6590
検	-6591
-	-6592
う	-6593
く	-6594
び	-6595
方	-6596
ま	-6597
測	-6598
8	-6599
動	-6600
例	-6601
合	-6602
7	-6603
テ	-6604
レ	-6605
電	-6606
フ	-6607
機	-6608
関	-6609
能	-6610
G	-6611
中	-6612
間	-6613
ド	-6614
変	-6615
対	-6616
後	-6617
ム	-6618
果	-6619
べ	-6620
結	-6621
状	-6622
実	-6623
要	-6624
術	-6625
量	-6626
上	-6627
グ	-6628
チ	-6629
・	-6630
症	-6631
理	-6632
大	-6633
示	-6634
や	-6635
け	-6636
ど	-6637
部	-6638
/	-6639
デ	-6640
応	-6641
形	-6642
V	-6643
マ	-6644
え	-6645
エ	-6646
コ	-6647
作	-6648
有	-6649
療	-6650
解	-6651
モ	-6652
圧	-6653
%	-6654
j	-6655
メ	-6656
力	-6657
工	-6658
特	-6659
ジ	-6660
出	-6661
学	-6662
W	-6663
水	-6664
本	-6665
構	-6666
認	-6667
加	-6668
計	-6669
下	-6670
効	-6671
一	-6672
験	-6673
内	-6674
物	-6675
者	-6676
質	-6677
述	-6678
カ	-6679
パ	-6680
型	-6681
説	-6682
ネ	-6683
線	-6684
膜	-6685
調	-6686
患	-6687
明	-6688
現	-6689
開	-6690
及	-6691
場	-6692
サ	-6693
置	-6694
基	-6695
造	-6696
ミ	-6697
時	-6698
血	-6699
〜	-6700
向	-6701
年	-6702
設	-6703
ニ	-6704
重	-6705
期	-6706
オ	-6707
査	-6708
気	-6709
バ	-6710
セ	-6711
技	-6712
率	-6713
試	-6714
数	-6715
細	-6716
心	-6717
地	-6718
研	-6719
討	-6720
面	-6721
K	-6722
み	-6723
ュ	-6724
位	-6725
入	-6726
全	-6727
施	-6728
析	-6729
種	-6730
可	-6731
多	-6732
導	-6733
管	-6734
酸	-6735
題	-6736
比	-6737
素	-6738
"	-6739
製	-6740
ィ	-6741
ウ	-6742
介	-6743
わ	-6744
光	-6745
小	-6746
標	-6747
究	-6748
点	-6749
病	-6750
目	-6751
見	-6752
:	-6753
最	-6754
経	-6755
ブ	-6756
以	-6757
品	-6758
料	-6759
治	-6760
流	-6761
胞	-6762
キ	-6763
強	-6764
液	-6765
適	-6766
へ	-6767
低	-6768
報	-6769
日	-6770
相	-6771
人	-6772
伝	-6773
同	-6774
因	-6775
態	-6776
所	-6777
等	-6778
材	-6779
表	-6780
業	-6781
温	-6782
環	-6783
考	-6784
ノ	-6785
予	-6786
薬	-6787
与	-6788
観	-6789
進	-6790
U	-6791
値	-6792
外	-6793
組	-6794
せ	-6795
ナ	-6796
使	-6797
価	-6798
抗	-6799
利	-6800
反	-6801
近	-6802
器	-6803
熱	-6804
装	-6805
ガ	-6806
ケ	-6807
ピ	-6808
制	-6809
境	-6810
得	-6811
ん	-6812
平	-6813
式	-6814
手	-6815
異	-6816
紹	-6817
自	-6818
ビ	-6819
不	-6820
前	-6821
増	-6822
微	-6823
確	-6824
J	-6825
影	-6826
新	-6827
象	-6828
速	-6829
長	-6830
事	-6831
原	-6832
回	-6833
次	-6834
癌	-6835
程	-6836
配	-6837
X	-6838
ポ	-6839
必	-6840
減	-6841
肝	-6842
処	-6843
存	-6844
接	-6845
産	-6846
響	-6847
ギ	-6848
少	-6849
界	-6850
ず	-6851
活	-6852
画	-6853
射	-6854
断	-6855
波	-6856
ボ	-6857
ョ	-6858
剤	-6859
各	-6860
移	-6861
群	-6862
転	-6863
記	-6864
防	-6865
切	-6866
在	-6867
層	-6868
路	-6869
連	-6870
Y	-6871
Z	-6872
ェ	-6873
ワ	-6874
磁	-6875
通	-6876
再	-6877
概	-6878
粒	-6879
系	-6880
超	-6881
'	-6882
域	-6883
常	-6884
意	-6885
投	-6886
月	-6887
来	-6888
続	-6889
評	-6890
非	-6891
持	-6892
晶	-6893
筋	-6894
じ	-6895
係	-6896
安	-6897
疾	-6898
直	-6899
立	-6900
起	-6901
ハ	-6902
ャ	-6903
件	-6904
御	-6905
感	-6906
知	-6907
積	-6908
精	-6909
較	-6910
今	-6911
床	-6912
換	-6913
空	-6914
過	-6915
μ	-6916
付	-6917
備	-6918
単	-6919
告	-6920
情	-6921
炎	-6922
診	-6923
代	-6924
受	-6925
均	-6926
展	-6927
約	-6928
良	-6929
道	-6930
遺	-6931
+	-6932
「	-6933
」	-6934
ザ	-6935
含	-6936
類	-6937
ソ	-6938
会	-6939
保	-6940
医	-6941
収	-6942
問	-6943
図	-6944
容	-6945
密	-6946
察	-6947
極	-6948
算	-6949
菌	-6950
運	-6951
集	-6952
×	-6953
害	-6954
布	-6955
放	-6956
様	-6957
骨	-6958
ダ	-6959
ベ	-6960
像	-6961
取	-6962
吸	-6963
国	-6964
差	-6965
白	-6966
食	-6967
ズ	-6968
ペ	-6969
信	-6970
別	-6971
改	-6972
条	-6973
痛	-6974
神	-6975
節	-6976
臨	-6977
論	-6978
送	-6979
限	-6980
陽	-6981
二	-6982
濃	-6983
誘	-6984
乳	-6985
散	-6986
板	-6987
植	-6988
正	-6989
況	-6990
準	-6991
第	-6992
耐	-6993
音	-6994
ホ	-6995
主	-6996
周	-6997
文	-6998
照	-6999
着	-7000
ヒ	-7001
世	-7002
唆	-7003
固	-7004
歳	-7005
脳	-7006
選	-7007
除	-7008
頭	-7009
°	-7010
ァ	-7011
他	-7012
半	-7013
提	-7014
格	-7015
求	-7016
球	-7017
課	-7018
達	-7019
降	-7020
げ	-7021
市	-7022
張	-7023
指	-7024
欠	-7025
死	-7026
溶	-7027
無	-7028
腫	-7029
視	-7030
[	-7031
]	-7032
だ	-7033
ほ	-7034
ぼ	-7035
側	-7036
児	-7037
印	-7038
和	-7039
徴	-7040
採	-7041
更	-7042
染	-7043
社	-7044
縮	-7045
織	-7046
金	-7047
ゲ	-7048
好	-7049
整	-7050
注	-7051
然	-7052
策	-7053
院	-7054
離	-7055
−	-7056
ば	-7057
ツ	-7058
媒	-7059
室	-7060
径	-7061
拡	-7062
答	-7063
色	-7064
証	-7065
際	-7066
づ	-7067
む	-7068
ォ	-7069
元	-7070
善	-7071
土	-7072
択	-7073
決	-7074
消	-7075
炭	-7076
突	-7077
脂	-7078
薄	-7079
角	-7080
々	-7081
ち	-7082
囲	-7083
局	-7084
石	-7085
蛋	-7086
領	-7087
依	-7088
初	-7089
建	-7090
当	-7091
昇	-7092
荷	-7093
鏡	-7094
乾	-7095
伴	-7096
塩	-7097
家	-7098
属	-7099
引	-7100
従	-7101
振	-7102
望	-7103
油	-7104
盤	-7105
障	-7106
齢	-7107
ゼ	-7108
交	-7109
個	-7110
割	-7111
務	-7112
声	-7113
帯	-7114
待	-7115
案	-7116
段	-7117
科	-7118
範	-7119
粘	-7120
規	-7121
識	-7122
難	-7123
併	-7124
優	-7125
広	-7126
推	-7127
支	-7128
海	-7129
清	-7130
皮	-7131
簡	-7132
蒸	-7133
複	-7134
車	-7135
野	-7136
鋼	-7137
=	-7138
ゾ	-7139
呼	-7140
壊	-7141
幅	-7142
悪	-7143
核	-7144
残	-7145
潰	-7146
疫	-7147
短	-7148
触	-7149
護	-7150
負	-7151
軽	-7152
顕	-7153
Q	-7154
ヤ	-7155
両	-7156
免	-7157
共	-7158
冷	-7159
名	-7160
女	-7161
房	-7162
損	-7163
止	-7164
源	-7165
燃	-7166
燥	-7167
県	-7168
統	-7169
肉	-7170
育	-7171
腹	-7172
鎖	-7173
隔	-7174
仕	-7175
傾	-7176
刷	-7177
塗	-7178
底	-7179
復	-7180
急	-7181
模	-7182
硬	-7183
築	-7184
粉	-7185
縁	-7186
胆	-7187
覚	-7188
言	-7189
足	-7190
込	-7191
逆	-7192
透	-7193
ゴ	-7194
ヘ	-7195
三	-7196
互	-7197
倒	-7198
始	-7199
延	-7200
息	-7201
抑	-7202
摘	-7203
殖	-7204
混	-7205
満	-7206
男	-7207
端	-7208
維	-7209
腺	-7210
臓	-7211
致	-7212
誤	-7213
ょ	-7214
傷	-7215
列	-7216
則	-7217
励	-7218
員	-7219
培	-7220
将	-7221
折	-7222
担	-7223
排	-7224
械	-7225
留	-7226
絶	-7227
総	-7228
著	-7229
載	-7230
階	-7231
順	-7232
養	-7233
侵	-7234
判	-7235
廃	-7236
族	-7237
未	-7238
束	-7239
添	-7240
破	-7241
礎	-7242
稿	-7243
績	-7244
胃	-7245
腸	-7246
衝	-7247
軸	-7248
違	-7249
酵	-7250
<	-7251
→	-7252
ろ	-7253
井	-7254
先	-7255
刺	-7256
削	-7257
助	-7258
十	-7259
参	-7260
宅	-7261
慮	-7262
抵	-7263
捕	-7264
景	-7265
洗	-7266
湯	-7267
潤	-7268
激	-7269
真	-7270
背	-7271
胸	-7272
補	-7273
都	-7274
雑	-7275
駆	-7276
健	-7277
北	-7278
厚	-7279
号	-7280
央	-7281
失	-7282
島	-7283
左	-7284
弱	-7285
想	-7286
挙	-7287
探	-7288
握	-7289
援	-7290
携	-7291
既	-7292
易	-7293
書	-7294
殺	-7295
汚	-7296
浜	-7297
滑	-7298
省	-7299
眼	-7300
糖	-7301
索	-7302
肪	-7303
脱	-7304
辺	-7305
週	-7306
鉄	-7307
頻	-7308
ね	-7309
並	-7310
乱	-7311
似	-7312
供	-7313
候	-7314
完	-7315
川	-7316
己	-7317
序	-7318
役	-7319
快	-7320
思	-7321
把	-7322
早	-7323
桁	-7324
毒	-7325
深	-7326
献	-7327
糸	-7328
脈	-7329
腎	-7330
費	-7331
赤	-7332
走	-7333
遮	-7334
静	-7335
鼻	-7336
β	-7337
ぜ	-7338
任	-7339
塞	-7340
壁	-7341
循	-7342
慢	-7343
扱	-7344
末	-7345
林	-7346
椎	-7347
歩	-7348
浴	-7349
獲	-7350
田	-7351
由	-7352
看	-7353
砂	-7354
硝	-7355
純	-7356
般	-7357
葉	-7358
被	-7359
訴	-7360
迅	-7361
遅	-7362
遊	-7363
陥	-7364
黄	-7365
±	-7366
γ	-7367
ぞ	-7368
促	-7369
充	-7370
円	-7371
区	-7372
去	-7373
台	-7374
商	-7375
困	-7376
堆	-7377
太	-7378
山	-7379
岩	-7380
抽	-7381
掌	-7382
搭	-7383
摩	-7384
操	-7385
映	-7386
村	-7387
根	-7388
梗	-7389
樹	-7390
浄	-7391
浸	-7392
済	-7393
滅	-7394
締	-7395
緩	-7396
縫	-7397
繊	-7398
肺	-7399
芽	-7400
落	-7401
虫	-7402
話	-7403
詳	-7404
諸	-7405
身	-7406
軟	-7407
輸	-7408
閉	-7409
&	-7410
ゆ	-7411
ユ	-7412
丘	-7413
亜	-7414
企	-7415
具	-7416
功	-7417
勤	-7418
営	-7419
嚢	-7420
団	-7421
壌	-7422
士	-7423
天	-7424
専	-7425
尿	-7426
屋	-7427
師	-7428
康	-7429
斜	-7430
民	-7431
泌	-7432
演	-7433
穀	-7434
米	-7435
継	-7436
義	-7437
職	-7438
肥	-7439
語	-7440
読	-7441
農	-7442
遷	-7443
針	-7444
鉛	-7445
雨	-7446
霧	-7447
革	-7448
;	-7449
̄	-7450
θ	-7451
ご	-7452
ゅ	-7453
乗	-7454
亡	-7455
余	-7456
典	-7457
凝	-7458
副	-7459
劇	-7460
勢	-7461
南	-7462
又	-7463
四	-7464
填	-7465
委	-7466
姿	-7467
孔	-7468
字	-7469
封	-7470
巣	-7471
帰	-7472
幼	-7473
弾	-7474
念	-7475
戸	-7476
搬	-7477
撃	-7478
星	-7479
曲	-7480
東	-7481
梢	-7482
橋	-7483
歴	-7484
湿	-7485
溝	-7486
焼	-7487
版	-7488
独	-7489
痘	-7490
癒	-7491
監	-7492
硫	-7493
粗	-7494
腐	-7495
船	-7496
蓄	-7497
蛍	-7498
融	-7499
衛	-7500
襲	-7501
資	-7502
距	-7503
跡	-7504
蹄	-7505
輝	-7506
追	-7507
遠	-7508
阻	-7509
露	-7510
項	-7511
風	-7512
飽	-7513
α	-7514
ぎ	-7515
ぐ	-7516
ざ	-7517
ひ	-7518
万	-7519
久	-7520
住	-7521
何	-7522
便	-7523
修	-7524
包	-7525
協	-7526
占	-7527
即	-7528
却	-7529
命	-7530
噴	-7531
埋	-7532
妥	-7533
寄	-7534
寸	-7535
干	-7536
懸	-7537
拍	-7538
掃	-7539
撮	-7540
擬	-7541
教	-7542
旬	-7543
暖	-7544
替	-7545
枢	-7546
株	-7547
栽	-7548
歪	-7549
毎	-7550
濁	-7551
灯	-7552
片	-7553
狭	-7554
珪	-7555
略	-7556
番	-7557
競	-7558
紙	-7559
給	-7560
網	-7561
腕	-7562
腰	-7563
腿	-7564
膚	-7565
至	-7566
苗	-7567
裕	-7568
西	-7569
豊	-7570
販	-7571
賞	-7572
退	-7573
鈑	-7574
録	-7575
門	-7576
陰	-7577
雄	-7578
需	-7579
頚	-7580
髄	-7581
>	-7582
@	-7583
|	-7584
Å	-7585
′	-7586
〔	-7587
〕	-7588
ヌ	-7589
京	-7590
令	-7591
仮	-7592
伐	-7593
傍	-7594
働	-7595
公	-7596
六	-7597
冠	-7598
剖	-7599
剛	-7600
双	-7601
口	-7602
右	-7603
吐	-7604
否	-7605
呈	-7606
味	-7607
唱	-7608
園	-7609
垂	-7610
夜	-7611
季	-7612
守	-7613
尺	-7614
尾	-7615
岸	-7616
府	-7617
座	-7618
庭	-7619
弓	-7620
志	-7621
惹	-7622
戦	-7623
押	-7624
掘	-7625
播	-7626
政	-7627
木	-7628
柱	-7629
柴	-7630
栄	-7631
梁	-7632
棟	-7633
森	-7634
槽	-7635
横	-7636
武	-7637
母	-7638
沖	-7639
泳	-7640
渉	-7641
湾	-7642
漏	-7643
濯	-7644
熟	-7645
牛	-7646
疑	-7647
稀	-7648
筒	-7649
箱	-7650
終	-7651
綿	-7652
耗	-7653
胡	-7654
若	-7655
茶	-7656
草	-7657
蔵	-7658
蔽	-7659
虚	-7660
衡	-7661
謝	-7662
財	-7663
貢	-7664
購	-7665
郭	-7666
鍛	-7667
鑑	-7668
飛	-7669
―	-7670
ぬ	-7671
倍	-7672
停	-7673
催	-7674
写	-7675
冴	-7676
到	-7677
刻	-7678
剰	-7679
勾	-7680
卵	-7681
厳	-7682
史	-7683
圃	-7684
売	-7685
夏	-7686
契	-7687
官	-7688
客	-7689
宮	-7690
富	-7691
崎	-7692
州	-7693
巡	-7694
巨	-7695
席	-7696
幹	-7697
幾	-7698
庫	-7699
弁	-7700
弦	-7701
徐	-7702
忍	-7703
憶	-7704
我	-7705
承	-7706
拠	-7707
揮	-7708
故	-7709
敷	-7710
斉	-7711
旧	-7712
昭	-7713
服	-7714
朽	-7715
松	-7716
枚	-7717
枝	-7718
校	-7719
棄	-7720
永	-7721
汗	-7722
池	-7723
浅	-7724
浮	-7725
渋	-7726
渡	-7727
渦	-7728
港	-7729
滴	-7730
畳	-7731
疱	-7732
疹	-7733
眠	-7734
砕	-7735
祖	-7736
福	-7737
秘	-7738
称	-7739
稲	-7740
納	-7741
紫	-7742
緊	-7743
緑	-7744
緯	-7745
練	-7746
繰	-7747
羅	-7748
老	-7749
腔	-7750
航	-7751
藻	-7752
訪	-7753
許	-7754
講	-7755
豚	-7756
貌	-7757
責	-7758
貯	-7759
買	-7760
貼	-7761
践	-7762
返	-7763
迫	-7764
途	-7765
遜	-7766
避	-7767
鉱	-7768
銀	-7769
銅	-7770
鍵	-7771
鎮	-7772
附	-7773
隙	-7774
雌	-7775
頼	-7776
馬	-7777
鳴	-7778
麻	-7779
*	-7780
Ω	-7781
ω	-7782
ふ	-7783
ぶ	-7784
ゃ	-7785
ヨ	-7786
且	-7787
丸	-7788
了	-7789
五	-7790
休	-7791
佐	-7792
偏	-7793
克	-7794
八	-7795
兵	-7796
凸	-7797
創	-7798
努	-7799
労	-7800
匠	-7801
匿	-7802
卒	-7803
危	-7804
古	-7805
吉	-7806
咽	-7807
坑	-7808
城	-7809
塊	-7810
塵	-7811
奈	-7812
奨	-7813
妨	-7814
姑	-7815
婚	-7816
孤	-7817
宇	-7818
宙	-7819
寿	-7820
尊	-7821
屠	-7822
履	-7823
岐	-7824
岳	-7825
巻	-7826
幕	-7827
幻	-7828
庁	-7829
店	-7830
律	-7831
忌	-7832
戻	-7833
抜	-7834
抱	-7835
括	-7836
挿	-7837
捉	-7838
掛	-7839
掲	-7840
摂	-7841
撚	-7842
救	-7843
旨	-7844
春	-7845
昨	-7846
暴	-7847
曝	-7848
架	-7849
柔	-7850
桂	-7851
梅	-7852
欧	-7853
殆	-7854
殊	-7855
氏	-7856
沿	-7857
洋	-7858
津	-7859
洲	-7860
淡	-7861
潜	-7862
為	-7863
牽	-7864
猛	-7865
珠	-7866
甘	-7867
甲	-7868
申	-7869
町	-7870
畦	-7871
疼	-7872
瘍	-7873
登	-7874
百	-7875
盟	-7876
砥	-7877
祉	-7878
禁	-7879
秒	-7880
稚	-7881
穂	-7882
窒	-7883
篤	-7884
籍	-7885
紋	-7886
級	-7887
紡	-7888
絡	-7889
綱	-7890
縛	-7891
罹	-7892
習	-7893
翻	-7894
肢	-7895
肩	-7896
胎	-7897
脊	-7898
興	-7899
舌	-7900
舎	-7901
茎	-7902
裂	-7903
覆	-7904
訳	-7905
誌	-7906
請	-7907
議	-7908
谷	-7909
貫	-7910
越	-7911
輪	-7912
迄	-7913
逐	-7914
逸	-7915
遂	-7916
錨	-7917
錯	-7918
陵	-7919
陸	-7920
険	-7921
随	-7922
隣	-7923
雰	-7924
雷	-7925
震	-7926
青	-7927
鞘	-7928
顎	-7929
館	-7930
駅	-7931
騒	-7932
魅	-7933
鶴	-7934
$	-7935
九	-7936
亘	-7937
仙	-7938
伸	-7939
但	-7940
倦	-7941
倫	-7942
偽	-7943
僧	-7944
償	-7945
兼	-7946
冗	-7947
冬	-7948
凍	-7949
刃	-7950
劣	-7951
募	-7952
勧	-7953
千	-7954
午	-7955
博	-7956
友	-7957
吹	-7958
呆	-7959
咳	-7960
唐	-7961
啓	-7962
喪	-7963
坂	-7964
坊	-7965
坦	-7966
堤	-7967
塑	-7968
塔	-7969
夫	-7970
奮	-7971
妙	-7972
威	-7973
婦	-7974
宝	-7975
宿	-7976
寒	-7977
寛	-7978
寝	-7979
居	-7980
屈	-7981
屑	-7982
岬	-7983
峠	-7984
崩	-7985
希	-7986
帽	-7987
庇	-7988
弘	-7989
彩	-7990
往	-7991
徹	-7992
怠	-7993
恐	-7994
恒	-7995
恭	-7996
